/**
  ******************************************************************************
  * @file    network_data_params.c
  * @author  AST Embedded Analytics Research Platform
  * @date    2024-11-04T20:51:43+0900
  * @brief   AI Tool Automatic Code Generator for Embedded NN computing
  ******************************************************************************
  * Copyright (c) 2024 STMicroelectronics.
  * All rights reserved.
  *
  * This software is licensed under terms that can be found in the LICENSE file
  * in the root directory of this software component.
  * If no LICENSE file comes with this software, it is provided AS-IS.
  ******************************************************************************
  */

#include "network_data_params.h"


/**  Activations Section  ****************************************************/
ai_handle g_network_activations_table[1 + 2] = {
  AI_HANDLE_PTR(AI_MAGIC_MARKER),
  AI_HANDLE_PTR(NULL),
  AI_HANDLE_PTR(AI_MAGIC_MARKER),
};




/**  Weights Section  ********************************************************/
AI_ALIGNED(32)
const ai_u64 s_network_weights_array_u64[17413] = {
  0x3d92685d3e2d4f9bU, 0x3a955e113d74a06fU, 0x3e73b1793c040f8fU, 0xbd28e1b9be80856eU,
  0xbe8a07673e5f7287U, 0x3d3be1ebbe19a69fU, 0xbc8d4a2fbeb76bb7U, 0xbd1464fd3e891adaU,
  0x3e8d14a33d3c9687U, 0x3d8a27cbbd45fefbU, 0x3e0610fbbd83ee6bU, 0xbe87dded3ca5eb6fU,
  0x3e504e8abd94a9e3U, 0xbece6cc13e0c8365U, 0xbc810d84bec1359fU, 0x3e24bb0cbec64c4eU,
  0x3df6b7613e5aa61fU, 0x3e78490e3ee80f03U, 0xbe8f3e80be39c86fU, 0xbeacc6053e33ffc6U,
  0x3e465b93be0d2412U, 0xbd822ca5becf0ff7U, 0xbe5f34273e8199eaU, 0x3e73f6263cfd9dbfU,
  0xbbbdefb5bedb1d08U, 0xbdb2999f3e8c52d7U, 0x3e2fbad3be50771dU, 0x3e939c19beaaa788U,
  0xbec03f2f3e1701ccU, 0x3df4d7983d9284f1U, 0xbe0139fcbeba6d1eU, 0x3d0df2a93e8005b8U,
  0x3e03c5b33e2d33a1U, 0xbc73a6ffbe201a44U, 0x3dd16bc93dcf1044U, 0x3c66edae3e15785aU,
  0xbe7566eebe8e1a79U, 0xbe87d5b13d62e6feU, 0x3e5fe026bdf68518U, 0x3dff5d67bc1bc454U,
  0x3dbd14ec3e8b5a29U, 0x3c9dc7fa3eb72630U, 0x3e30d56fbe9e03c8U, 0xbec050163ea6136fU,
  0x3e70a2e8be80e0cbU, 0x3e8ec5a83ed56979U, 0xbe098d513da40b19U, 0xbefc4295bf0d9a4cU,
  0xbbebd6f4bee0ba69U, 0x3c8e7a7e3e4f7f71U, 0x3ebaba963e261ae5U, 0xbcab0fa0be0042cdU,
  0xbebbab2a3e8befe8U, 0xbe2830e1bee4ceebU, 0xbeef35f2bd9dc0d6U, 0x3e11b17bbec5f188U,
  0xbde8e3c9bdf7ca88U, 0x3ead0bc73ebbd1c4U, 0xbf03dcc03e9ade83U, 0x3d99585bbd728c64U,
  0x3d900ca1beb8b97fU, 0xbecc128d3ea26f91U, 0x3db65a803e5aedeaU, 0xbe2b37aebd014d66U,
  0x3e7889f1bef29f47U, 0xbd981d823eb1cb85U, 0x3cdd8323bdf6d524U, 0xbe46bd3a3e80c175U,
  0x3e10a0c2bdb2984bU, 0x3dc48f0e3d686613U, 0x3e6f1f5e3e1b84ceU, 0x3b5c4b793b048625U,
  0x3dbc5f933e27e73cU, 0x3e33303d3e8a5e80U, 0xbe7eac9f3e4715e1U, 0xbe9a7000bd8bf899U,
  0x3e632205be78f75dU, 0x3dd3ceb83e3574b9U, 0x3de4cf533d97fe14U, 0xbeb373753e833d7cU,
  0xbe736f98bebcefb3U, 0x3dcd1766be8c3da2U, 0x3d5ff2213dd807c7U, 0x3e4ba2503e427955U,
  0xbdcecb573e2e9b8aU, 0xbdb6766dbee305a0U, 0x3e51756d3d8e4c16U, 0x3e83ba0a3d887c86U,
  0x3e6fe945be11a192U, 0xbeec77a63db6cbbaU, 0x3ded2df93c5633a3U, 0x3ddedfd03e117dd0U,
  0xbd559639bbf81078U, 0x3d0369763db134d4U, 0x3e744ede3d2a5cbbU, 0x3e4728183e3d8453U,
  0x3e2187ef3d3aa431U, 0xbed0733c3e3f273bU, 0xbe8ef975bec0c2c6U, 0x3c4e79aabcfa01aaU,
  0x3e57410e3e10e4f7U, 0x3d03d76f3de3ded9U, 0xbdb72d2abe8e6335U, 0xbebbfc453e1ab9c3U,
  0x3e3eaa69be3f10daU, 0x3e9be8d73e3a06eaU, 0x3d760ba63e00300dU, 0xbe829c17bce79a1fU,
  0x3de4db41be0b0d80U, 0xbdfb2d30be5c9d2bU, 0x3e09e52f3e0b2de5U, 0xbd0c504f3e045d13U,
  0x3d2fe0b83e082212U, 0x3e0e21e03e28ea72U, 0x3e78bad93e7f8002U, 0x3eab1bcabec08639U,
  0xbf1c3647bd7e0acaU, 0xbe56f797be59cc40U, 0x3de2b880bd2a14faU, 0x3ddaf5653e2e47cfU,
  0x3cc1d1403e5bc1f1U, 0x3e41fb033da71af4U, 0x3a1145e7be1d8200U, 0x3d7b7972bd274210U,
  0x3e17a6033e1b179bU, 0x3de53db5be0e0fe8U, 0x3eb1e1883e2888d3U, 0xbe579d1b3dfe5185U,
  0x3dfc46373e5ca175U, 0xbea6239bbeeb589fU, 0x3ea10b903cc97f33U, 0xbf162acabdfbbfd9U,
  0x3dc991593e4c03c4U, 0x3e9f3b0bbeb3ea7cU, 0xbe03330c3e643d0eU, 0x3e8227403ed24714U,
  0x3d95abb83e2f0818U, 0xbea973db3df9f2caU, 0xbf13054dbf03cc5cU, 0x3e07b3cdbed97ab2U,
  0xbd6499493e06c721U, 0x3e228c79be07b2a0U, 0xbe0ab4373df42348U, 0xbd4c08ca3e3829bfU,
  0xbc9bdf4abe10afb3U, 0xbd0ab330bc6c4039U, 0xbbe2ce5b3dc2ff2bU, 0xbe27226d3ca28a90U,
  0xbd4aeb5dbc63c6f2U, 0xbb961cd93d93ccf5U, 0xbb1bf4133c1fa302U, 0xbe12e752bc3262c5U,
  0xbc966b1dbc92f97bU, 0xbd90e0bebd7909d6U, 0x3d1df739bd2d2f72U, 0xbd847839bd9781abU,
  0xbcfb29ae3aa45f3dU, 0xbca2493e3b2cff56U, 0xbbeaa87bbd0e00a8U, 0xbd83e25b3dabf489U,
  0xbce32e963d68bb8cU, 0xbbfc6e24bd0c77fdU, 0xbd761c98be55c8e7U, 0x3caaf186bdbfd48aU,
  0x3d8b9c5dbd10a726U, 0x3e6251a7be8d7a5fU, 0xbdf9b5173d77af9aU, 0xbcab9db23d13974dU,
  0x3e0e3cda3d4d42c8U, 0x3d5ce0df3e15a5c8U, 0x3d7a36ac3d48ac6dU, 0x3d774cf83dac18bfU,
  0x3dbc6142bcac92baU, 0xbcbb4695bd8a2d71U, 0x3dff21543e062eb3U, 0x3d4755b8be143a09U,
  0xbdd5ebb63e19d326U, 0xbe0f5dedbd4373a2U, 0x3d34ea81bde8ce24U, 0xbd6adc5a3e048295U,
  0x3e46679ebe01f11aU, 0x3ea47036be0aabe8U, 0xbdfb289fbcd045d1U, 0xbe0bff433e6c9a42U,
  0x3e947b863d97e4b3U, 0xbb05e4e13af9b3a9U, 0x3e244ca4be3bc8c5U, 0xbd4451e43e046fd7U,
  0x3d3c3970bd86719fU, 0xbe01ca35bd128876U, 0xbbc8163e3e9111d9U, 0xbd77d205be403a69U,
  0xbd1aa9493d80df77U, 0xbd0c4a8ebcf12abcU, 0x3dc4143fbc186a3bU, 0x3cb86dd13dd08825U,
  0x3e34fdb1bdce9a0cU, 0xbd92f1bcbe2e1d17U, 0x3a8476523dab1c24U, 0xbe06a5b43e357e4eU,
  0xbe5f890bbe849729U, 0xbd8f6ea8bda52007U, 0xbe9b20c9bdfe8b8fU, 0xbda51f64bd91cc54U,
  0xbcbcdcf6be0a93e1U, 0x3d192f0cbddc374fU, 0x3e1302003da0e7e7U, 0x3dac42f6bf000a4bU,
  0x3cebcb8fbd436086U, 0xbd675abebd28ef7fU, 0xbd8e96c5be3509fdU, 0xbc677a923d8aaea0U,
  0x3e318483bd56806bU, 0x3b118dea3d950890U, 0xbdb8eb0bbd1db9c9U, 0xbdd6fcb53dba60e9U,
  0x3d5c25b73d556259U, 0xbe0415ae3af5afd4U, 0x3d6e639cbe1105feU, 0xbdd22b1b3c611ebaU,
  0xbd051323bc8bceacU, 0xbdf75e7fbe1899b6U, 0x3c9cf2093e76ffcbU, 0xba861a36be8892f6U,
  0x3d84be5abb163586U, 0x3e7b5960bd486299U, 0x3bb68444bc4df0fdU, 0x3da10d183c8a7649U,
  0xbd8922b33df93bdaU, 0xbe3b2b9f3c094130U, 0x3d61fff73dd8660bU, 0x3d7fd29bbbe06f5cU,
  0xbe8b74e2bc0fc495U, 0x3d987d043db9f2a2U, 0xbea8ef8cbbdc4c1cU, 0x3e5a573bbda3ca93U,
  0x3dd6f9b1bc8f1679U, 0x3cd03f6b3d981186U, 0xbdfcd051be3e66e1U, 0x3db99470be90fbb9U,
  0x3d54bdd6be298360U, 0x3e227947be041c66U, 0x3daea6c7be766c33U, 0xbc1eb0e3be868170U,
  0xbe99b5713a106250U, 0xbe4ff5a8bbd30311U, 0x3df3d2d0be93a4d2U, 0x3d19c408be107164U,
  0x3d2be5fc3e385e0dU, 0x3d8a044d3e210709U, 0xbd922bd5bd93e8d2U, 0x3e583581bce9ca8bU,
  0x3e37c5e93ca285dcU, 0x3c50880fbbb77a67U, 0x3cdaa107be3809a7U, 0xbd3bf6213e14a9e9U,
  0x3e34d417bdc227bdU, 0x3e1ebb57bcf2aba1U, 0x3d81039ebd9b9cc0U, 0xbc21768ebdfe0aaeU,
  0xbdba11e63e349d30U, 0xbeb67dfabe1ede9eU, 0x3d6184dc3cd433bdU, 0x3dce0868bc52c322U,
  0xbe1324fa3cc1f251U, 0x3e179db13e80877fU, 0xbe9bed873c413e07U, 0x3daecd84bc2125b0U,
  0x3e8102943dba7b6aU, 0x3be58ca63d4cf4f0U, 0xbd844862be87509dU, 0xbc88f0edbdaf5795U,
  0x3d7c8315be18287bU, 0x3dc700a1bd80f174U, 0x3c2135adbd162f9eU, 0xbc58f335beaed442U,
  0xbe704a153cb62709U, 0xbe68313a3e23470dU, 0x3be3a901bea00d79U, 0xbcbe13e8be20aa9cU,
  0x3dcc1e973e4768d1U, 0x3d93010d3e22c368U, 0xbd7c9ae53abf95c2U, 0x3dfc279a3b095523U,
  0x3e288c7bbc1ede17U, 0xbc9905033d121cf0U, 0xbe2fa435bdcf084cU, 0xbd82c7e93e3a3254U,
  0xbcf7fb523dc3c5b8U, 0xbdb470753d64e23dU, 0xbc924695be7780daU, 0xbe5d3d28be2c712bU,
  0x3c889ad4bd6282f9U, 0xbe5b61953e1521eeU, 0x3d078bf2bd8ab15aU, 0xbe0e9f8fbb9504fcU,
  0x3b9d3889bc18a8d7U, 0xbdd6b2e9bd105169U, 0x3cb7e73cbd3f4a4fU, 0xbd3c3dfebdee2a60U,
  0x3c864ff4bd3c2cffU, 0xbdd63204bdbcf182U, 0x3d0ccd683b556e94U, 0xbe520b2fbd31a275U,
  0x3d8c2511bc65ef0fU, 0x3e3aaa82bc4edb6dU, 0x3c5c14f93ddd25a1U, 0x3cef2d573d4b0019U,
  0xbc08a7083de4f52cU, 0xbe81bf343e17ee8dU, 0x3d9ce9c2be312787U, 0x3c90857ebe5842a5U,
  0xbdd7184fbdd5b986U, 0xbe1a45ffbd1e3e5cU, 0xbdcc7f59bd31204dU, 0x3c93cd6f3d17622eU,
  0xbe737bb6bbf8d324U, 0x3d8bf3a13daee26cU, 0xbeaf7147be541608U, 0xbe0ccd6b3d42f60fU,
  0xbcc213213d7865caU, 0x3e05d19c3d6ed7e5U, 0x3c5068c43d71c983U, 0x3e3b91afbd637573U,
  0x3c7af8613d01eaecU, 0xbec265733c61f96bU, 0xbb260019be5a0edfU, 0x3e176766bdeba207U,
  0xbe326fefbd01cb8fU, 0x3d77c7e13d886ab5U, 0xbe62a4293dd16bfcU, 0x3cba96ed3c25b95eU,
  0x3d31c8ab3d47edf0U, 0x3d193c70bd14912eU, 0xbdf79b0fbea2120bU, 0x3dfdf5703c5eb2b4U,
  0xbcc9a5acbb2eba3eU, 0xbd36141e3ce3c51eU, 0x3d62cc4c3e23c5d8U, 0x3e0c0c4fbdb8e857U,
  0xbddc67d83cee9c60U, 0xbebb779dbe691f60U, 0x3e2e1b6bbdd4e18eU, 0xbce9a219bd7ea661U,
  0x3d914af13dd9bcd8U, 0x3df33cab3e122113U, 0x3c8449563ca6bb50U, 0x3da33fcbbd81631dU,
  0x3e64951b3db5e95bU, 0x3dc657763cbe8e9aU, 0x3de72018bee3c7dcU, 0x3d448064bdedf735U,
  0x3dd79deb3dc65358U, 0x3d9837183d5712fcU, 0x3db04847bd8610f1U, 0x3c8da2c03c3976cfU,
  0x3de2214c3cbc200bU, 0xbe074f933dbdae8fU, 0xbd69dd8dbe4b8ae1U, 0x3d1a5f36be35569cU,
  0xbcedf06c3d7f8b29U, 0xbd8ffdd4be2313e6U, 0xbe21acddbc5408aaU, 0xbcfad5be3e0f3233U,
  0xbdf9697a3d0c49b1U, 0x3c8faa6cbb8fbed4U, 0xbef57025be0c5a34U, 0xbbf448ec3dc62d8eU,
  0xbcc0693bbbffd972U, 0xbb5787f23cd9682cU, 0xbd1d6c86bb151c42U, 0x3e076e50bd868202U,
  0xbd362c35bc960c25U, 0xbebcbec6be1af094U, 0x3d27230abe363b3fU, 0x3df3f936be06e834U,
  0xbe4185133e2c8a25U, 0xbd306046bd258047U, 0xbe77cc983ccde78eU, 0x3b366a313da8c72bU,
  0x3d9eb85f3d44a2e8U, 0x3de7ba973da3bb1bU, 0xbce4edd1be641425U, 0xbbdab905bddcde2bU,
  0xbca9c6bbbd9c40b4U, 0xbd8b67663db99fafU, 0xbd98b2e8bd1cfe98U, 0x3d61a73fbdfdcd2fU,
  0xbe8c98a1bd9fa863U, 0xbe7afdc23dc6c0cdU, 0x3e6fd673be9290b9U, 0xbd65fab1bdeb3b4cU,
  0x3dc2ce183e40382dU, 0x3e0c00f03e0fb4b5U, 0x3d248a2f3d582ef1U, 0x3c996fe5bdb0a249U,
  0x3e574cd5bd61c007U, 0x3d0ebc75bd21d25dU, 0x3e1f3469be360e39U, 0x3d1fa28e3da2cf3dU,
  0x3e0aa6d03d18ccf4U, 0x3dedbfae3d18d8d6U, 0x3e2149df3dd729aaU, 0x3deea2df3defe7c7U,
  0x3de2211a3d66fccaU, 0xbe212dbf3e05ee8eU, 0x3d38188bbec13130U, 0x3cbd13febe89708dU,
  0xbe596c9abc2d7d38U, 0xbdd75c2bbda26ebcU, 0xbe8c8e3f3da130fcU, 0xbdcfb0663e0eee98U,
  0xbd82bfb43d1f0da5U, 0x3b9c35c03ba68901U, 0xbe94f21cbe54418fU, 0xbcfcadb8bcfd4b0dU,
  0x3e2f1d46bde18f02U, 0x3d105f6e3d72d5ceU, 0x3d4017e23e3f0e7cU, 0x3dc1eeeb3d8e7fbcU,
  0xbd0926c23cce9eaeU, 0xbebc4b84bddbfd4bU, 0x3e3c1c0abec58b7aU, 0xbcf41dd4bdaccf3aU,
  0xbdf7bdefbd10ce80U, 0x3d547de33df97432U, 0xbe9ffeab3d667229U, 0xbd514f2ebc86b380U,
  0x3d81f5aebd657b2eU, 0xbd2ee4423d798176U, 0x3d3ac339be8f836aU, 0x3e02982dbdd6ad36U,
  0xbed12e63be926b74U, 0xbf01a9f4bc8905caU, 0xbeb341f2bdad2de1U, 0xbe642f34be42f091U,
  0xbf0b102cbecafeb3U, 0xbed3604fbd069a5dU, 0xbed5a74bbe78d680U, 0xbe85f7e9bd943a89U,
  0xbd10822d3da102c5U, 0x3c7033eabcc0b08dU, 0x3d2e51ffbc836defU, 0xbe2bfb78beac19ddU,
  0x3c62640fbe709042U, 0xbdda2ba1be882c02U, 0x3de55461be989f8eU, 0xbe0659013d75106dU,
  0xbd273a44be159dd4U, 0x3d0a628bbda0b5e0U, 0xbda0fb0abe63e044U, 0xbc8761ebbe8477b7U,
  0xbec756e43d8a4930U, 0xbe2cf94d3db6c524U, 0xbe1b0a4bbe620cf3U, 0xbdba5346be08fb26U,
  0x3cca56913e350eefU, 0xbb8ee007bcc78d6eU, 0x3da104b2bcb89866U, 0x3d251b71be1527d5U,
  0x3df9a9fabdbf88a0U, 0xbde43f3fbd42b5a1U, 0xbdba6a64be4851d7U, 0xbe1182723ddc2aafU,
  0xbd1d8b6bbe27390cU, 0x3cc121aebdf42e70U, 0xbe58d239bd2a3cb3U, 0xbe8f19a9be547cf7U,
  0xbe784afbbd901cbbU, 0xbe83210d3c1c83a3U, 0xbe6a92afbcb75b47U, 0xbe034b9ebdca9540U,
  0x3d3d5cabbdcee175U, 0xbe12e617be455921U, 0x3d913315bdeccf67U, 0xbe073f92be29d118U,
  0xbdcd9d9fbd9aca9eU, 0xbe53eca9be0c5474U, 0x3a97cc6abd7e99ddU, 0xbe9a441a3d293adbU,
  0xbe6b2eaebe9a08baU, 0xbe27a70dbdf1d611U, 0xbeaf6417be3ce9ccU, 0xbe7841a2bdf8365fU,
  0xbebda149be71915aU, 0xbe4f1176be56390fU, 0xbe9891e13d1d9f18U, 0xbe54a19ebe3b1fb1U,
  0xbe30caf1be4b81a1U, 0xbe84c239be3fe111U, 0xbe3fdf35be97b4e2U, 0xbe8c4dd1be6dd97bU,
  0xbe42d87dbe39c807U, 0xbe3ef605be00916aU, 0x3d2da79abe72610aU, 0xbeafebd6bcbae684U,
  0x3ddaf2c6be482c6dU, 0x3e4201cb3cd4c8c4U, 0xbe45aea4bdcee0fcU, 0xbcdd10fbbdb1bae4U,
  0xbe6fe4233e01e519U, 0x3d869e113d925d1eU, 0xbc8adcf93e196888U, 0xbcff0840be13e457U,
  0xbdf7214c3db92810U, 0xb786dae0bbe3e719U, 0x3cc5da69bddb691bU, 0x3c1d4c0abe1c63daU,
  0xbd365e843d71c44fU, 0xbdbff3db3d4d848bU, 0xbceaddb2bc98139cU, 0xbe2aeb8b3cc71217U,
  0x3db4fb4d3d2009adU, 0x3df2f72abd4b8bf2U, 0xbe2b9e4ebdfcc3b3U, 0x3d410d35bd29bb00U,
  0xbd57498b3d4d8624U, 0x3da282023d0107d7U, 0xbe0dc7c63d4393b4U, 0xbd1255f03db3509dU,
  0x3df28ad63d35912fU, 0x3d65406e3d22501bU, 0x3daccc203ca9484cU, 0x3dc357413dc7a876U,
  0xbce0a5983d318dc9U, 0x3cdab9eb3da42e8cU, 0xbd1792533e0fc6c6U, 0x3c8b8e713e24cb2dU,
  0x3d9f2c3b3cc3cd0eU, 0x3e1493123ce75ea6U, 0xbe9e8729be8db2a5U, 0xbdc0e55cbe60887dU,
  0xbd8acd9b3c827e2dU, 0xbd624233be13e08cU, 0xbde017273df4abd7U, 0x3c86a8503e4e14b9U,
  0x3d8286a7bdae6032U, 0xbddd5d70bd1b92b3U, 0x3e0b96d43c2f0470U, 0xbd6b608f3d7e81baU,
  0xbdae2c813d287cd6U, 0x3ddbdfa33e1d612eU, 0x3d4309c7bd3ec994U, 0xbaf87357bdfb18e9U,
  0x3ddaf5a9bc10f4dfU, 0x3d8af1653cbb14caU, 0xbdd75d12be0f7ce5U, 0xbd8fafa6be6f6430U,
  0x3d85f9243da4cbdaU, 0x3d0c4dcb3e8f24eeU, 0xbd3ff0ad3e325dafU, 0xbc60a46e3e151bf6U,
  0x3e44d63a3e180cfeU, 0x3d802e6a3e252f1cU, 0x3dc2c9723d28c75aU, 0x3e6c33363dc75f2aU,
  0x3d96afdbbd1d5a2eU, 0x3dab62f33e1e5ce2U, 0xbdccdc893e18d381U, 0x3dc3e3c23df3e55dU,
  0xbcd9bc9cbd3e8057U, 0x3d318a8bbc29ab47U, 0xbdba7d99bc13eab8U, 0x3cf8820cbd76faf2U,
  0x3dcdfef43db6b5b4U, 0x3c18d3fb3dc75ebfU, 0x3d5ec9d8bda83812U, 0x3b49dc30bd9a184eU,
  0x3de9c3f63db32debU, 0x3db1a439bb103b29U, 0x3dd90c463ce01180U, 0x3e12a247bc70e912U,
  0x3d5544953dc0dd75U, 0x3d35fe56bd7216d5U, 0xbd91c4963c8fd638U, 0xbb38092c3d96f7bfU,
  0x3de5c8623def335dU, 0xbd429c333da35a4dU, 0xbda4cffbbe2e1e44U, 0x3e05112cbda861b5U,
  0x3e12a11e3d9d5f77U, 0x3e26f1d6bd0c5b70U, 0xbdba7863bdbac4b4U, 0x3dc8c6bdbc2ce986U,
  0x3cccd94b3dc693e8U, 0x3d000a083d535ae6U, 0xbd6b3cb0bd444edfU, 0x3d878cf13d1b7181U,
  0xbd90ab9a3d9a2529U, 0x3db1fec13da91147U, 0xbe377a473da7f4beU, 0x3e05011cbc14300bU,
  0x3d0faeedbccdb8d4U, 0x3cf0de793e3a57e2U, 0xbaf3be213d04ed0cU, 0x3df989e03d846292U,
  0xbd9053633e054895U, 0xbe8cb429be91bf3bU, 0x3c8fe64cbdad84ebU, 0x3e0ade4abd037531U,
  0xbd39b1e63d89d3e0U, 0x3e2669193d684b58U, 0xbe6742083dfa381dU, 0x3d8c50dcbd61c1c6U,
  0x3e6a6a943e1769c9U, 0x3e0434ee3e40fda7U, 0x3e5fb1e7be75e79dU, 0x3e252ef2bd84acd5U,
  0x3dfaf0a03b9d3213U, 0xbe181a813dc46fd6U, 0x3b6e58db3e187150U, 0x3d9276253d05a6feU,
  0xbd2610113db7b681U, 0x3b5ed7f63dd02651U, 0x3d65842dbe5c7511U, 0x3cc22bd23de325c1U,
  0x3e0069e43de3ea18U, 0x3e0d47753ddfa768U, 0xbcfdd4d33dc6d040U, 0x3bc003613bcf9020U,
  0x3e2a007c3d532f34U, 0x3d2fddaebcaff84eU, 0x3de5ccd03c74251dU, 0xbaba2fee3dd160afU,
  0xbe16cfe5bdad9b6aU, 0xbe56313d3e0ae7ecU, 0xbdc5baf23c39c9e2U, 0xbb00c9103d99eb7aU,
  0xbe129a3fbe177444U, 0xbdae5a4bbd6b9faeU, 0xbe0dbf50bd753b32U, 0x3d30dbfb3da38754U,
  0xbd2420e43d3d972dU, 0x3d61909dbde3669aU, 0xbd648339bcd9eeb6U, 0xbdc2f136bc9994c1U,
  0x3dcb919cbc1ac5f3U, 0x3bccafa9bd899871U, 0x3e383afb3d4a31b9U, 0x3cbdcc3b3c0bf140U,
  0xbcd1b4abbd328275U, 0xbe1569563da6a48bU, 0xbd4a35d4bd61d1d8U, 0x3dc98933bda8e054U,
  0xbe1f6629bd9ae9b0U, 0xbe9cafb2be6daac1U, 0x3b05072dbdbd8e3eU, 0x3cb2e6cbbd9bd106U,
  0xbe4eb0253de49cb3U, 0x3e4ecbe83c9fb57bU, 0xbe4c76ea3e178915U, 0x3c60a04ebd9d7e6dU,
  0x3e74aafabc6a662dU, 0x3e0ce1983dfd4d6cU, 0x3e4e5477be936d7cU, 0x3dd3688bbdb2c89aU,
  0xbece97c7bd941ec0U, 0xbefdea81bdb2b0b4U, 0xbe2224e33dd50f80U, 0x3d3a6e57bda40263U,
  0xbe7860aabeda06a5U, 0xbe582919bb9b5b8aU, 0xbe6f16a8be27ccbfU, 0x3d6d3b99bd5c1be7U,
  0xbe072b82bda069b6U, 0xbd26918dbdada27fU, 0xbe19069d3c3c2c74U, 0xbdca829dbe3dd8feU,
  0x3c952a13bddcc099U, 0xbc7a0df2bd832120U, 0x3d777698be156051U, 0xbe30b887bd60b50fU,
  0xbcdc8b19bdfccce7U, 0xbdf41787bdb7ee11U, 0x3d672bf5bd1a156bU, 0xbdd8ebb1bc9a5198U,
  0xbe007b1fbe2bd809U, 0xbda3aead3d1af9c6U, 0xbd7ffff9bd542865U, 0xbd367444bda5588fU,
  0xbdae5d52bcc359f5U, 0x3d3255323d9904a6U, 0xbd33d399bd558709U, 0xbe243487bdbd5e32U,
  0x3d174982be019fa8U, 0xbdbe900abe0f3dc0U, 0x3e00c9ce3ca6c4c0U, 0xbc695a093d75fb50U,
  0xbe3a5811bd4cd31eU, 0xbeab1b423d99ab10U, 0xbde646e6bdcd2ae0U, 0x3db0edd73d4353cfU,
  0xbdf7ef2bbe3c8506U, 0xbe5170babdcae955U, 0xbe0a90cebe358042U, 0xbcba814e3dbf9a76U,
  0xbd8895573cd2b967U, 0x3d9fedadbd4ed89aU, 0xbd987f1f3d87690bU, 0xbba2b339bded05e1U,
  0x3e1f0da53db67e5bU, 0xbbf8280bbd363071U, 0x3e1791bfbe1073b9U, 0x3bf504b0be352e32U,
  0xbebabe543dac638fU, 0xbead3c16bd903532U, 0xbe1e06fc3b71078bU, 0xbd9e147abd9ccd84U,
  0xbbdd6559beaf5724U, 0xbe1e53a5be68c25fU, 0xbe8e192dbcc08e2cU, 0xbd805986bc0f4fbcU,
  0xbd51780abe3ac9e5U, 0x3d1960f2bd1bb761U, 0xbde69b31bd1f6411U, 0xbd85fd793ac125d2U,
  0x3da4ad693c3c80b0U, 0x3d421741bd4c9b5aU, 0x3d0f5c0cbd9c929fU, 0x3c8becbdbe1ac3f3U,
  0xbe91054cbe9b9c02U, 0xbe447ea1be274d4aU, 0xbe6f88bcbd8416eaU, 0xbe5f8524bddce06bU,
  0xbea4f5ccbe9cf416U, 0xbdb78d80bdaa09fcU, 0xbe60b5c3bda8ead5U, 0xbe7ea019bdc47a70U,
  0xbdb736653d60ad12U, 0x3b6219b33dd720d1U, 0x3ada6ad9bca15546U, 0xbd79d8c2be60a3c2U,
  0x3db55124be44d6a8U, 0xbdcaa3debd840a36U, 0x3e4955cabe08bf7cU, 0xbe20a9cfbb2bf6caU,
  0xbcddb62a3e143ad9U, 0xbe298e633d8eaa44U, 0x3d8d96b7bd3e6102U, 0xbb806bce3d81ea7eU,
  0x3e4e442ebba10c69U, 0x3e2ca2c5be4372f5U, 0xbdc0dbb03e223b53U, 0x3d4e6add3d94c774U,
  0x3d93b239bd1f1bbaU, 0x3b037190bd02c9a8U, 0xbbab21ff3ddaffc7U, 0x3d61475f3e05522aU,
  0xbd8751843d79db78U, 0x3dab3cb53cb565a0U, 0x3e2de87b3e398994U, 0x3d847044be6518c8U,
  0x3d9177d13dbb4ca6U, 0xbdba237f3d291cb8U, 0xbd2c3657be3e9fbcU, 0xbcf34561bd8073b0U,
  0x3dc72974bd7471adU, 0x3d256e6dbe839693U, 0xbcaee0473da5c76cU, 0xbb1db9783dae52b3U,
  0xbe0adab3bdf793f3U, 0x3c811ee1bd2ece66U, 0xbe86fea43dc8fcebU, 0x3d96f6d23cb595d0U,
  0xbdd12fec3df247c3U, 0x3c9c417f3de30f9dU, 0x3e447d923d28a975U, 0x3da88cd7beb0a405U,
  0xbe1fc6f73c3ea8e0U, 0xbd8e0ee9bca9a793U, 0xbd805cecbe5cc973U, 0xbd2a64abbe4a446aU,
  0xbdcd82f2bcaaa004U, 0xbe5a3b1dbe6d8f63U, 0xbe3a6dbd3e4d5ad7U, 0x3c3557c33d7b68d5U,
  0xbe7188debea99327U, 0xbd468005be22bd8dU, 0xbec1e04ebcfc4286U, 0x3d8bdd53bc991d86U,
  0xbd255f713c529ca1U, 0x3cf6b304bc275900U, 0x3dd48301be6f0cdaU, 0xbe0fa2acbeb68f0dU,
  0xba7755243d63d0f4U, 0xbdb1dd95bd6cd1ccU, 0x3dbba9edbd8d0bdfU, 0x3dcead83bd05e182U,
  0x3dfb0a7dbdca9651U, 0x3d7923b7bd806109U, 0xbda9b98abea1841eU, 0x3cc0b9eebd6a50e8U,
  0x3d4efcdb3bc8a5baU, 0xbe1d0512bc006cb1U, 0xbc781bbfbbef00bfU, 0x3d78f3723d32faffU,
  0xbe9f2248bd83c42eU, 0x3d6efb6b3cde1039U, 0xbe9d9ffd3e0ca608U, 0xbd7c2589bdf9d390U,
  0xbd06aba83dacc2e2U, 0xbe69921dbc959202U, 0xbd4604d1bc9a792bU, 0x3d79322cbc984bacU,
  0x3e45af0f3b78de35U, 0xbc7a8a5ebe882671U, 0xbdcad581bdf87f06U, 0xbd90fa143ca231f6U,
  0xbe56b70dbe499beeU, 0xbdb194cdbdd841c9U, 0xbe9d2a843dd415edU, 0xbcdf63e23ddd81dbU,
  0xbd544ce93dbe6e51U, 0x3d981a7bbd15cd41U, 0x3d97c1093df5cb36U, 0x3e1edb6dbedbec80U,
  0xbe9afefebcb2ddc6U, 0xbe3950973d6b162aU, 0xbe1ed4a7be31d4faU, 0x3c690287bdba4498U,
  0xbd9c2e90be9b963fU, 0xbd78eefabead08b0U, 0xbe809f3c3d7087eeU, 0x3d2e9eb93dc0b0d7U,
  0xbddf2c513a2d414eU, 0x3e02bb123cd1838cU, 0xbe5e080c3dd008e2U, 0xbc9eef24bd6af901U,
  0x3d671dfc3bdb4d54U, 0x3cc3b9da3d6034ecU, 0x3dc11a4abe35fe7cU, 0x3cef103fbe17446aU,
  0x3e3b54563d8935dcU, 0x3e4bb8b5bd937436U, 0x3db7664abca9ebc0U, 0xbcec3962bd5670b9U,
  0xbd821e493e4409d4U, 0xbd593acd3dfb04bbU, 0x3dbedebfbe24677bU, 0x390027f6be29dc32U,
  0xbe342f1e3d368cc7U, 0xbd840df6bd942db3U, 0xbd49470cbd56567fU, 0xbd38fa833cc17ffdU,
  0xbd8fb4b93dd3e7a8U, 0xbb5c7fb73d7b0d38U, 0xbf01c3c4be423813U, 0xbc0b297dbdba1239U,
  0x3d859aba3d06f3a1U, 0xbd5ce05b3dee39cfU, 0x3d28f8ff3d0c160eU, 0x3d1736fbbc9638a2U,
  0x3ccb401bbc2eddd6U, 0xbdf7066ebe85f97eU, 0x3d13382cbe38028cU, 0x3e1ed5d0be72e5abU,
  0xbe45e2bdbbc74d34U, 0x3c3fbe143e100b64U, 0xbe4870ba3d161eefU, 0x3deb4bb9bd218d5eU,
  0x3df265c63e0b01ceU, 0x3cc0e23a3cbc281bU, 0xbcc4a311bda8f6d5U, 0x3de48318be8481dcU,
  0xbe4e1b5cbcb9e5cfU, 0xbf1415233d8fc02fU, 0xbe256579be18461eU, 0x3d51ff20bd6a2ccbU,
  0xbe035b2fbe920d84U, 0xbd05aa4cbe46ff3eU, 0xbddab3fabe6b5c19U, 0x3d8c24abbd15bbf7U,
  0xbc42e827bbd94c42U, 0x3dcfaa8a3d45b742U, 0xbe2e0d643dbbdef1U, 0x3c0d5981bd58de14U,
  0x3e24bacdbe13fa2fU, 0xbd650c273c37f8f9U, 0x3dfa1088bdddc806U, 0x3d52447ebe3868fbU,
  0xbcf5d75cbe04b471U, 0x3e291527ba95e72aU, 0xbe0e175abde0cd66U, 0xbdce46f1be3faab2U,
  0xbe72cfc7bc2474bcU, 0xbe42ed793caa038dU, 0xbe06fbb53ea10abbU, 0x3d76fdff3e4ed2deU,
  0xbdd31e2cbb9f34bfU, 0xbd7389023caa739bU, 0xbe3aba193c86c3e9U, 0x3e564c64bdd704daU,
  0xba99110e3d59f1e0U, 0xbba5af043dbe4446U, 0x3d8f35e8bda0e625U, 0xbe0885ef3dcecaeeU,
  0x3de3ecf8be4fea4dU, 0x3e07950dbcca4fdcU, 0xbcca59b4be2f42a3U, 0xbd1fc241be7241ecU,
  0xbea7faee39ed4e0dU, 0x3c91ed853e4abce8U, 0x3ce7c4bebccccfb2U, 0x3cd3fa7bbe45a740U,
  0x3e2b14fb3e35815bU, 0x3b9431823e3649c8U, 0x3d9a9eb5bcbac36fU, 0x3e729454bdae0229U,
  0x3d1fdde6bd4c9450U, 0xbe175444bd4064a6U, 0xbd995cd1bd4857f8U, 0xbe582f253e52c9dfU,
  0xbe0c2071be118d99U, 0xbd600d12bd91d479U, 0xbdd0be40bd5e0894U, 0xbe333b5ebe1ea458U,
  0xbe744917bbcb336fU, 0xbe5d245e3e6e4846U, 0xbdc1d9c2be11aaacU, 0xbe435d90be785bd9U,
  0x3e2cc7303e2c7edcU, 0xbd3eb3c23d850e25U, 0x3deb3aa33b40f1a7U, 0xbc308ac0bdf96c8dU,
  0x3bf57b25be2c8c7cU, 0xbe2c8114bd77e350U, 0xbe0186103d3f65bdU, 0xbe59b6c33e4d1e77U,
  0xbd95158fbd9acbb7U, 0xbd97b6533e03d707U, 0xbe0ae910bdc34786U, 0x3d1b24e9be4c0cd5U,
  0x3d2492e9bdf212d8U, 0xbc014fd0be0af48dU, 0xbe573e693dedff7dU, 0x3ca93faa3e559940U,
  0x3d4f9c60bdba1e19U, 0xbda487de3dda536cU, 0x3b8231a93d33d888U, 0x3da36e60bda21386U,
  0xbe0eaf043d9a7092U, 0x3dc3e8e33d71e275U, 0xbe1221ddbd8b4f85U, 0x3d2ea93abe14253cU,
  0xbe33e1f53ac9aa09U, 0xbdb989083da26eb1U, 0xbdd97cfbbdc817c1U, 0xbd4bc3dfbe357b69U,
  0xbd9cda1dbdc9368bU, 0xbe164069be27d787U, 0xbd8eec0c3e968c9dU, 0x3da510f53df1af9cU,
  0xbdf1c45cbe183117U, 0xbd8e9aa43d9613a9U, 0xbe3a657f3d40bb81U, 0x3d9d7c9cbb17f242U,
  0x3d8c7166bd5cc97aU, 0x3dd6feb43e044f33U, 0x3d8f30a2bd850fbdU, 0x3d2175dfbe95b861U,
  0xbe95eb51be49c346U, 0xbd4495a93da93250U, 0xbe878050be4b2d4aU, 0xbdc20c2fbe664bf2U,
  0xbe875998be4b3e94U, 0xbdf32e563d8224d1U, 0xbe66bc783e4eb689U, 0x3d2498ec3d4e8849U,
  0xbd98bd3abda227eaU, 0x3d964aeabe06dbbfU, 0xbd0cf0bcbd43d4a0U, 0x3da0a4f1bda18e1fU,
  0xbdb490ffbd7d0e53U, 0xbdb0df073c9c54cdU, 0x3d802f5dbd7f0d00U, 0xbe847c0b3d084953U,
  0xbd9c3fe03d9427f8U, 0xbe299b50bce10038U, 0xbdfa527bbd737006U, 0x3cc3eca7bd818031U,
  0x3d78cad9bd9092e7U, 0xbc6edbb5bcbd710bU, 0xbdc73386be94d176U, 0x3da6c9e43c0be32dU,
  0x3dacb609bda1a10eU, 0x3d812a673acfe0f1U, 0xbd09534b3d772f24U, 0x3d474420bb2b4a12U,
  0xbd62a6d2bb917646U, 0x3d9bdd85babf60c8U, 0xbe3fb3f5bc590e17U, 0x3debdd6dbe817561U,
  0xbdafdaac3e600a33U, 0xbe569cbf3d7ddf0fU, 0x3e45af7a3d17d070U, 0x3d62ab913e1efbdcU,
  0x3eac753ebda0f9a2U, 0x3e03176ebe4581e0U, 0xbd37f1633d17a6c8U, 0xbda01f113e366455U,
  0x3cfb3657bdb21907U, 0x3d6e18c23d140f39U, 0xbdc96a033da59a11U, 0xbcbdbcd73d8f5225U,
  0xbc8a01df3de40e6aU, 0x3ce9362a3ccd849fU, 0x3da706f63d2a5829U, 0x3de1722abe882645U,
  0xbe6e5db83e22fd04U, 0xbda59cf73e7b0656U, 0xbd94d9c9be8fdd3dU, 0xbcd27b913d9f653dU,
  0x3e8ec677be46066bU, 0xbde47a15bf091d33U, 0xbd88e6f83eaff8efU, 0x3a0a3bac3e80c2b5U,
  0xbe9ef746bee141e0U, 0xbdac494abe84327bU, 0xbea109cc3d9a3fdaU, 0xbe58cc4d3c840029U,
  0xbd959cfa3d9f92ceU, 0x3da445d93d779162U, 0x3e29a76bbd18e67fU, 0x3da53622bf06200eU,
  0xbe6556cbbd869b47U, 0xbe45d3823dd55208U, 0xbe1636ddbdb9f4b0U, 0x3d917a2dbd313528U,
  0x3d8d82a6be748401U, 0x3cbff1e43c24e1c9U, 0xbe7a8cb83de490acU, 0xbd8ec42f3e7557acU,
  0x3c784ba93c1bbfe6U, 0x3d65ed943c4089d1U, 0xbc194d053d9d83a1U, 0xbc7ca4e43d52c1e3U,
  0x3cd033febc05d2bcU, 0x3deeae21bbd409d4U, 0x3e0dc1ed3e009e5fU, 0x3d5655733d226078U,
  0x3c741bf6bda5387eU, 0xbd90eddcbe1f4cb2U, 0x3e33d5a83e35ec92U, 0xbe06830f3d6c85e4U,
  0xbc79ec56bbc18b11U, 0xbde0fb39bd2dec49U, 0x3df6e8d339fa76e3U, 0xbe18b021bdedf3dfU,
  0xba627c023cb6aec8U, 0xbd92208fbc3cccb0U, 0x3c9b623cbce2c036U, 0xbdfa7be5bdbcd666U,
  0x3d0c7ecbbda78a24U, 0xbde42048bd43c269U, 0x3bc2f8b1bce60dd0U, 0xbdbf8b973c9d4cebU,
  0x3e1bb6643e0b1a0aU, 0x3e31d010bcb1930dU, 0x3e668eb23e4cb315U, 0x3e10a88a3e24ace1U,
  0x3e10d8d23d8801b8U, 0xbdc28ebfbd01f3f0U, 0x3e38d50fbe8fc408U, 0x3d029dd8be2326d3U,
  0xbe6e6e7fbdee690cU, 0xbd998759be37b372U, 0xbe3ce298bc9c3693U, 0x3d9a4ed93dd80259U,
  0xbd87c0f5badcfd8dU, 0x3c7e52b03dbdea19U, 0xbe6c359ebe26d402U, 0xbcdc90a9be177c65U,
  0x3d924ed13d19fbb5U, 0x3dc022f53d6c9a81U, 0xbe12ebc2bd84fc76U, 0xbb6222d4bdfe3c57U,
  0xbca00654bd051022U, 0x3c1c50bfbe3fb35dU, 0x3ccd7dd43da34b3fU, 0x3c8c470db7a87decU,
  0x3cc86f2b3dbac165U, 0x3da5bf293caaa991U, 0xbccd399a3dd0447eU, 0x3caf2d10bd9ef4dcU,
  0x3e5138fd3dde8860U, 0x3dd4f5d93c7a2297U, 0x3e3c7361bd9eead5U, 0x3dc38c11bc8f8cc4U,
  0xbd846907bcfe6793U, 0x3c966e0ebe12fc26U, 0x3d7d4ac13ca40264U, 0xbe10adf03c26ffc5U,
  0x3dccf931bd4bffa8U, 0xbd114597bdc6dc8aU, 0x3d78ea9abcccaf8eU, 0xbd6979d5be093c78U,
  0xbe06cd53bdbe0456U, 0xbe0b930dbd540b3bU, 0xbd26898cbe04da22U, 0xbde9c29b3c9cde1bU,
  0xbd48f191bdfcc854U, 0xbde2fcbbbd9bbad5U, 0x3ca2ec0bbd4e3893U, 0xbe26da7ebb3b2aa9U,
  0x3db1d0bd3df839d0U, 0xbc88cdf43a94fa56U, 0x3e341ba73e180e69U, 0x3dde76cc3e0625d5U,
  0x3e1ab0babbbe99e8U, 0xbd8c9babbeb2739fU, 0x3d873225be4ff0b2U, 0x3e0321a3bdaf8aceU,
  0xbe4922f1be557ebaU, 0x3d5c621f3a4539cfU, 0xbe9eb6363cc5e67dU, 0xbc15732a3dead9fcU,
  0xbe2501a03dba1c41U, 0x3dbe71e6bc6e094bU, 0xbe244b6ebe15107fU, 0x3c44c41dbe9b9634U,
  0xbdd5f44cbe3e3083U, 0x3d436d443ae70c23U, 0xbe2d77f6bde13793U, 0xbdc365d4be03045dU,
  0xbe99d036bc1524a7U, 0xbcc0d56e3de4aeafU, 0x3c94aeddbe887ae6U, 0x3d3500e3bc7aba2cU,
  0x3e1e74563ea76ad1U, 0x3d924eb83ded0d54U, 0x3d34f7613d9d60b9U, 0x3b8f4962bdb8cb81U,
  0x3e53a1ecbda44f5aU, 0x3d98d95cbd5261c3U, 0x3d8b052fbe2a6030U, 0xbd31ce273e6808d5U,
  0x3bf2e0e9bdb56c86U, 0xbdc64018be982f48U, 0x3da37304bca3842aU, 0xbe0cc555bdb28629U,
  0x3d8debddbd9127a3U, 0x3dfae5d6be0f6805U, 0x3c7e8bd2be95556fU, 0xbe22a433be48c3c7U,
  0xbdb4509dbd86ffacU, 0xbe3e3d2abd968e19U, 0x388840b3be12d8b2U, 0xbd8d39aabdaec8c7U,
  0xbe1e1e23bdbc14bbU, 0xbe11be8dbe20d2d8U, 0xbd9d56d9bc042d9dU, 0xbe50aee33d8a9a9aU,
  0x3d895ce73e3afe32U, 0xbe076e76b9ed84dfU, 0x3e3f61583d951b3bU, 0xbd2e62253df50e02U,
  0x3e7ac3113b7b231aU, 0x3ddb2b94beb9f46fU, 0x3e0b7272beab6c2aU, 0x3cb71026be008ac2U,
  0xbd3215b8bd7f0d91U, 0xbe21880dbd93f86fU, 0xbe05e92dbbb53010U, 0xbddb45963e1427d4U,
  0xbe710b0abd260fb0U, 0x3d39e6a3bd247b3aU, 0xbd5df47a3dd3bf38U, 0x3cd33662be24b7f0U,
  0xbd48b7433dd0fa51U, 0xbc9b23ac3deae407U, 0x3cce3b30be19cde9U, 0x3dadcc39bd42532cU,
  0x3ce21297bd0f605aU, 0x3de01509be2e1f67U, 0xbbe2b781bd922cb2U, 0x3a3ab3363d732577U,
  0x3d50211ebc01923dU, 0x3e169ef93e1b768dU, 0x3d8c436d3da0c681U, 0x3c524b6d3d010d06U,
  0x3b34f2cfbd546c2cU, 0xbc63b3613d70452fU, 0xbd11c1f73cdbd631U, 0xbc0228e7bcb9431dU,
  0x3d79a0cc3da66beaU, 0x3cce9b883d39aacfU, 0xbda91337bdc127c5U, 0xbd8f41edbd910666U,
  0xbbb948cdbd14a802U, 0x3cd14f39bd531df0U, 0x3ceb154c3c43876fU, 0x3d8be98d3d220b0cU,
  0xbced8b61bd6b5677U, 0x3db94c0a3d834b09U, 0xbe1752a83d09e7c8U, 0x3de0ebda3ccf042aU,
  0x3dc2bf6c3c413979U, 0x3b72541a3d140e5eU, 0x3d23d147bd0ca312U, 0xbd555fec3c7cfaebU,
  0xbd6bc5b7bc37e12aU, 0xbd382d9e3cd0a852U, 0xbe0ba5e9beb5fa1eU, 0xbc74cce6beadc40aU,
  0xbd8daec9bbf8cacfU, 0xbd7456ad3d1eb6b0U, 0x3dc1b69e3b3388e2U, 0x3e0e60acbe0ca877U,
  0xbd20ca153e7f24c5U, 0x3e34fc4e3e8247aaU, 0x3dab91703dc97127U, 0x3e2fc7463e125a14U,
  0x3e6cea2a3cfaad9bU, 0xbcee3f4f3dd5db26U, 0xbd727fd0bcfe7d1bU, 0xbc0b50553e011215U,
  0xbd085dda3cf17b5aU, 0xbe37bc453d918158U, 0x3daa4bbfbd6d33b3U, 0xbd0954cc3d1a09f8U,
  0x3d6e3108bd9d72fcU, 0x3dec16b03d3a0e2bU, 0xbd98a24fbe456dd5U, 0xbdaa86c4bd9d035fU,
  0xbd3dd58ebb402f7cU, 0xbd74c4acbdf0b24aU, 0xbd9d10b7bd244766U, 0xbd1d3bb93dcb7f45U,
  0xbdd60e42bdd3f4d3U, 0x3d8c8c93bd0a5cadU, 0xbe6206213e2d5262U, 0xbd8bfb2d3d08b081U,
  0xbe0dabdd3ccfa8b0U, 0xbe6e0e033df51aa8U, 0x3d3fa5b6be2e3961U, 0x3cb49ab1bcb7b70cU,
  0x3e23a709be0dca97U, 0x3d90ac27bce4ce15U, 0xbe583ebf3d9090ddU, 0xbd11025a3e1d6cb9U,
  0x3ccdaa7cbd5020adU, 0xbce9ab72bda1be72U, 0xbe289bc03d557aa8U, 0x3b83952e3d548dadU,
  0xbe13c9893d5d848cU, 0xbd23aa76bd936fdcU, 0x3dc57e973de6b62bU, 0x3c2516bebe6bd43eU,
  0xbe6dc8623d80a77aU, 0xbe5f072b3d3680f1U, 0xbdd6f7cdbece4e12U, 0x3d85754abc8861baU,
  0x3dd555abbde68511U, 0x3e60b3fa3ad59bb8U, 0xbe8245383e8b2ca9U, 0xbc1d60653dfff01bU,
  0xb9171c6ebd867709U, 0xbdc34cbb3d989eeaU, 0xbd0e0c893da9e8dcU, 0x3e535f27bd214793U,
  0xbdf453963cb9ca13U, 0x3dc81ddb3d7f5343U, 0x3dc7fbcc3df3d888U, 0x3d994a21be343968U,
  0xbe4c4df1bcacccf6U, 0xbebde8e1be73b5a5U, 0xbd143a03bd8ba975U, 0xbd9e0c5bbe08338aU,
  0x3d778616be8e83ecU, 0x3e73117c3d0eb008U, 0xbe519fe7be8547f0U, 0xbe2c1199bed28cd0U,
  0x3e1950ce3c586ba6U, 0xbe4b8a58bc4dce69U, 0x3e2e735fbdfc2b87U, 0xbde1620b3d274d47U,
  0xbe477de9be2ae6f9U, 0xbe20c730be939d4fU, 0xbee890f93dfbf0daU, 0xbdb9c9dc3db5cb55U,
  0xbe3198413cec4862U, 0xbebfd8d7bdca830eU, 0xbdd0f2d1be30a1f8U, 0xbc5d3664bd9763e1U,
  0x3c522bddbe23d263U, 0x3e7017f5bd26c5a2U, 0xbe22461fbde8f7dcU, 0xbe5bacc43d069a5fU,
  0x3e52eec13db8ff56U, 0xbe737131bd66bb79U, 0x3ddd6c41bdf6e317U, 0xbde84472bc175185U,
  0xbe9eb20ebd7ecf32U, 0xbd939f4bbe431122U, 0xbead07583e1a5a65U, 0xbd4e4c243bff34abU,
  0xbe85fe393d815cc4U, 0xbe7ac1c53c866b53U, 0xbd758356be9d6a38U, 0xbd5f88053d2d5445U,
  0x3e288621be573114U, 0x3e6fdc02bc21367aU, 0xbea0b7673dae9bbfU, 0xbd8a07d63d81e677U,
  0x3e0191afbcec9174U, 0xbd8eaadabda2b471U, 0x3e4acf643daf5622U, 0xbd595ed13e198847U,
  0xbe42ede2bc8d4299U, 0x3d2a87303de9bed1U, 0xbe1e01fa3e47c7c2U, 0x3d1c96db3d26bdfeU,
  0xbd243d8bbd8113ecU, 0xbcbe37f4bd341ea5U, 0xbb2c2090be3253e3U, 0x3c3c3563bcdd6778U,
  0xbcd9044dbd9d2487U, 0x3d0549fabd5312b3U, 0xbe06cc3cbe1a6e06U, 0x3c4f8c553dacc77aU,
  0x3e206a033e03eed9U, 0x3d6dacdb3e54f466U, 0x3d3f9a67bbf9bd4eU, 0x3ea0a6ab3d8fb424U,
  0x3e519e32bd02dad1U, 0xbd8acdcfbdc49ba9U, 0x3dcf8e6b3d7bed24U, 0xbddc29c0be14d948U,
  0x3dd681ce3dc54e52U, 0xbd2f3b1dbb3a680aU, 0x3e1bf6903d6388ffU, 0x3d83eb103e105a34U,
  0x3e8456d8bd3b9782U, 0x3e51d922bdcc09e3U, 0xbcad6e2ebd8c6465U, 0xbd714cf23d964c70U,
  0x3c5b9df43b091807U, 0x3d2a01e53d40c4dcU, 0xbda0c25ebdce6770U, 0x3cbc3dcb3e3ba1b3U,
  0x3da5c0493d3e32c6U, 0xbda17940bd082dc1U, 0xbdbf14fe3eadc1e5U, 0x3de76045be762956U,
  0xbce53e993d2985e1U, 0xbe0c531c3d9a7582U, 0x3d9d656ebb977eeeU, 0xbd284bd1bdc60853U,
  0xbc56b7a6bd1af8fcU, 0xbcf544e238973897U, 0xbdb3e3023e234536U, 0xbe08d64b3e06652bU,
  0xbe7822bebdf3ce7bU, 0x3cce8abbbddb5f87U, 0xbec11c153c9573d8U, 0xbdbc61b7bdea3cdfU,
  0x3d912c3abcb70ccbU, 0xbc1dd4d03c6a97e2U, 0x3e761d403c81df60U, 0x3d2d7985beadee4eU,
  0x3d1e0c5fbd27158cU, 0x3e001f0e3d456709U, 0xbe172410be5f97b0U, 0x3ca5a76cbd8ffb03U,
  0xbc2cb67f3da4718cU, 0xbe144c0f3df0db4aU, 0xbdb156683dc92052U, 0xbd8acc1d3d5a127fU,
  0xbddec5d2be08b637U, 0xbd29ee7b3d0c80c2U, 0xbde68aa6bd4b2c67U, 0x3d4b57e7bcb90affU,
  0xbd6412963d4976a6U, 0x3d56d0863d52cd35U, 0x3ae96946bc2cd910U, 0x3cf981a7be92cda2U,
  0x3dbe77fcbe095832U, 0x3daf810ebdab0e2cU, 0x3d9fb2d2bd306671U, 0xbbc13a54be00ec33U,
  0xbd8f76663e211216U, 0xbdb048bd3dcdc3bcU, 0x3e09679dbdbdd595U, 0x3d2b538dbd5ee0f4U,
  0xbd61e2003d99a4abU, 0x3d9cc09c3e6c93c4U, 0xbe255b11bcb17544U, 0x3e2b7caebd34e4e4U,
  0x3db39c223d045c04U, 0x3d8e2f063b4a1621U, 0xbe2a27eabcd93466U, 0xbbed01f3bdead013U,
  0xbe0142ea3d008f46U, 0xbe3f42993d7b12efU, 0xbdab2dd9be20a3f5U, 0xbd8f8bf5bde16294U,
  0x3ddad9dabe329b57U, 0x3d1296d6bd4b797bU, 0xbd65d622be678447U, 0xbdb67a2a3dd12a6dU,
  0x3c6febc23b8c9374U, 0x3d1a1c053d47c46fU, 0xbe2caabcbdb36c48U, 0x3d4b592b3d868e34U,
  0x3dd0060e3cb83abdU, 0xbd82590fbc407417U, 0xbc2714073da5b72dU, 0xbbd27f4cbe37d770U,
  0xbdaace823c3b685cU, 0x3dbbbf95bcc7f255U, 0xbe56db21beb86d7cU, 0xbdb83acdbeb15effU,
  0xbd5f7e86bdbceb81U, 0x3d04f4e23e348658U, 0xbe12bf2d3ca43728U, 0x3e0299d93d825ccbU,
  0x3d9e6fab3daac9f3U, 0x3df07edd3d110a03U, 0x3e277dd1bd67a180U, 0x3e80b1973c9db23aU,
  0x3d7bf1d93d89fd4fU, 0x3d39c78bbd407be2U, 0xbe026b503e026779U, 0xbbae13243d375b21U,
  0xbd985504bd36c878U, 0xbd5660ebbd77fe8dU, 0xbea29e4abe8bbb4aU, 0xbc4bba35bef174ccU,
  0xbe066c91be1e0cd2U, 0x3db63f593e5bbd4dU, 0xbe85abe6bdecc15dU, 0xbd4e6b65be208c8bU,
  0x3dd01b593e2dc93dU, 0xbcbd652d3ddb96e5U, 0x3df215f8bd2de01dU, 0x3d97d2443cdea1c7U,
  0x3dd5a840bd9cd4ccU, 0xbe0a0b833cbf0d33U, 0xbcaca4d53d2b548eU, 0xbde9330e3df58c8cU,
  0x3db353bebca9fa5dU, 0xbe0797c2bd0c2865U, 0x3e1aa32bbcd56567U, 0xbd51b1553d79101cU,
  0x3e0e9059bbe9f2c9U, 0x3d4428443d9dd2c2U, 0x3c7d6dd4bdabb5d9U, 0xbe05aa0638a42ee7U,
  0x3db93bc8bdf45ec9U, 0xbe09bc0d3cbec360U, 0x3d16a2b3bdf4409eU, 0xbd0f2508bdbd3831U,
  0xbe17d7fc3ca1c32fU, 0x3c6b7c62bd049f7eU, 0x3c0666813e2ea3d5U, 0xbd9fe210be2605ddU,
  0xbc97043cbd898484U, 0xbe75fea5be222c0aU, 0x3cee0fbabd7fd2b9U, 0xbd6e14b6bd88d235U,
  0xbcea6213bcd50ac1U, 0xbdb00e62bdc122faU, 0xbdfc3c28be3d319dU, 0xbe8ad2df3ca2f091U,
  0xbbb6a697bd9772ebU, 0xbe45920ebe54c42aU, 0x3cea04f8be1841b7U, 0xbe8c57d0bd9760daU,
  0xbd95ea54bdf525a1U, 0xbc76cc4fbe3c1a7bU, 0xbd3cdef5bd6e1a65U, 0xbe0c3b8dbd152a4dU,
  0x3e24e65b3d84c245U, 0x3d25a6f0bda2edf1U, 0x3d91f47d3e10fa22U, 0x3c7270d63d242907U,
  0x3de93bc03c508aaaU, 0xbde06f2bbd6b21feU, 0x3deabae4bd39a43dU, 0xbd1cf744bde479ccU,
  0xbe83600bbe5717d6U, 0x3c8ce6c7bdc57fa6U, 0xbe18ed263d7b4f6eU, 0x3c2ad0ae3dab005aU,
  0xbdebb321bc23b2d6U, 0xbcfcb4073d56913aU, 0xbde29ca2bddd7255U, 0xbe018808bdaf13d5U,
  0x3e25b6f2bcadd84dU, 0x3caf414b3c4d2f8cU, 0x3d5345f03df8fb23U, 0x3d24067c3d89eb44U,
  0xbc45c41b3da1beb5U, 0xbe7424fbbe363425U, 0x3e4eab76be26244eU, 0x3db4a8523d2da234U,
  0xbe9adac53d3556a9U, 0x3e5d708ebb24f917U, 0xbe88acbd3d905862U, 0xbc82aa83bcce35e3U,
  0x3e29fd403de08de3U, 0x3d8853773dc680eaU, 0x3d675cb8be8a09fbU, 0x3e072568be775234U,
  0xbd7ceb3fbc82ff97U, 0xbb2942d0baf8d271U, 0x3d312a45bdde0efdU, 0xbde68abdbd3d053bU,
  0xbc87eaf8bd2653e3U, 0x3d1cf2cdbceb5291U, 0xbe1ac6a53d9d69a8U, 0xbbf47cac3c9886a1U,
  0xbd739544be0e0817U, 0xbe192ba5b9596b3dU, 0x3cf319f1be02952bU, 0xbd942be03cf4d493U,
  0xbe2dd63ebdda37a4U, 0xbcc8e1c2bdb12f8aU, 0x3d1e14353bd163bfU, 0xbd7a5af43d9975d1U,
  0x3b5f0c66bd0fe557U, 0x3d80b246bdf518a9U, 0x3df24b863a755bdeU, 0x3c08773c3e0daea8U,
  0x3d7cc2fc3e03a086U, 0xbdc194b1bde2a79aU, 0xbcb9dd69bd10ed28U, 0xbb3d89cf3c996ae4U,
  0xbe5b6620bd1c7fabU, 0xbdc0bceabe37d560U, 0xbe55c0683c5edb24U, 0xbd7f49b33d3675ddU,
  0xbda38aab3d90a9beU, 0x3d78d39f3d8f8f37U, 0xbd8714b93a9de074U, 0xbd1a73d53d4421d3U,
  0x3de6f4c53d100c2fU, 0x3e1ff13e3da290b9U, 0x3deff7a23e2946d3U, 0x3d7cd3fa3dac1bb5U,
  0xbd6ee4083ddf9d6fU, 0xbea63fb0bdfe8788U, 0x3df027d8be00d932U, 0x3dcc41f2bd50dc84U,
  0xbea91931bd31d617U, 0x3e12d3153d4fa5f0U, 0xbecd592f3dce0407U, 0x3e124158bd2693a2U,
  0x3c852db13c9c6069U, 0xbcbb52c23db4d8f2U, 0x3da6d4d9be9e9c34U, 0x3d41120bbe856079U,
  0x3df6a9bebc7b914bU, 0x3d99b6ef3dca57bbU, 0xbd869ff9bd6b686eU, 0x3dbc71a63c921508U,
  0x3da0292f3dddfbfaU, 0xbdbf7e133d48dea6U, 0xbd4fe40e3e18c262U, 0x3cc810cb3d812228U,
  0x3dfc45c83ddbf8d5U, 0xbd76f4f2bdb0a85fU, 0x3d126ac4bd80e310U, 0xbdc1b1633db0f037U,
  0xbe2234ee3cffbc20U, 0xbc18640e3cfa007eU, 0xbd94dd0a3cad6e66U, 0xbd86fe463e2eb68dU,
  0x3dd4e6be3b7ee216U, 0x3d28b60ebc99b786U, 0x3b9bb41b3ca95de7U, 0x3cd1eb3cbd9aa605U,
  0xbda287443d86b034U, 0xbecd380e3cdeca03U, 0xbc6d74d5bd435bb9U, 0x3e31de88bde8538eU,
  0xbe0c4967bca4e86aU, 0x3cd32cde3c36f582U, 0xbe539b383ced0580U, 0x3de191823c247cfaU,
  0xbdbb11ee3dcce498U, 0x3d8923203d8bacd5U, 0xbdb147c4be9dc360U, 0xbd465ef5bdf27168U,
  0x3de9acd9bd85d422U, 0x3dfa15ec3db92a62U, 0x3ccb3b5a3da105c0U, 0x3d5373fd3d96ee6dU,
  0xbe3616193da76a86U, 0xbe386bd1be5c23beU, 0x3deda6ebbe802de4U, 0x3dadc5f2be0f6826U,
  0xbe3cdbb53d9d7920U, 0x3d3173ab3e496d6dU, 0xbe9dfbca3c8ca6b7U, 0x3e35a3fdbdad2f45U,
  0x3d0570f73da0b4a7U, 0x3dcdf1463de86954U, 0xbdaa6db6be53a57bU, 0x3bc3891cbe6dbeb0U,
  0x3d8899b23d328c40U, 0x3e2910bcbdfde573U, 0x3cdc836ebd8dec56U, 0x3c55dff3be279b3cU,
  0xbd6b6fbc3e58d0cfU, 0x3de244c13e08d34dU, 0x3df9dd32bdc240c9U, 0x3d46323bbc94a126U,
  0x3e52926d3de4846aU, 0xbd26f0213df0c86aU, 0x3d88ee2dbd9bacb0U, 0x3e2cca9e3e312d66U,
  0xbd4a6e363e16a437U, 0xbdd5f842bb494184U, 0xbdc0eae93d6883c3U, 0xbcf80e433d32f89bU,
  0x3d520ccc3d61f8e9U, 0x3c1ddedebc0db6d2U, 0x3d20a063bc57dfffU, 0x3c627947bbd57b72U,
  0x3cb11651bc045646U, 0x3d88ca1a3cca86a6U, 0xbdc1642f3d9211b1U, 0xbb3bb3d83d31096cU,
  0x3d9f2dba3c051639U, 0x3c8261c73ac8528aU, 0x3d83eea5bcc979beU, 0x3d4fdba63df7038bU,
  0xbdabcf41bc80c2d7U, 0x3d7a74ac3d8e5157U, 0x3dbd4b933d9af212U, 0x3dcc5514bc96bf46U,
  0xbdf599bbbd92f2f6U, 0xbd5ab4af3d8630ccU, 0x3d906be2be43d396U, 0xbd56eaac3ca3614fU,
  0x3dd70f8fbd9276abU, 0x3e2209173d0e29c2U, 0xbd7da95ebe087c3aU, 0x3d6e6f5bbdb9e0fdU,
  0x3d21638ebc920cc5U, 0x3d8e5b763dd860e2U, 0xbcb8b7d03b254c01U, 0x3bcd8bfb3cc76536U,
  0xbd90ee0abd4ac17eU, 0x3d3ca1733d11825bU, 0x3d0858bf3de24068U, 0x3d68056b3da8b697U,
  0xbd81ee07be18beeaU, 0x3be536e73c359d15U, 0xbe71dc05be95cab1U, 0x3abb0768be7896d3U,
  0xbdf687f5bda5e37aU, 0x3e5a7fa93cc1523eU, 0xbeb3815c3e35c166U, 0xbdf66df23d99a9bfU,
  0x3cdf522abb074b3aU, 0xbdc4b4febdaacd21U, 0x3d94d915bd1395f8U, 0xbd918a06bde926e4U,
  0xbe588ad1bdc69378U, 0xbd698a69bd9ffc21U, 0xbd8a449e3e5a2527U, 0xbe530225bd1bbfc2U,
  0xbd95d4b9bdb11d32U, 0x3d868ae0bd29c880U, 0xbdd71f64be7c9fe1U, 0x3d2ac01cbe4b458fU,
  0xbd5e0938bc17b133U, 0x3dd6ece83ded04efU, 0xbe3a86df3d0c4a76U, 0xbd252af3bd1cdf5cU,
  0x3d5123263d2bf62cU, 0x3c48d763bcc60b8eU, 0x3c109e62bd873065U, 0x3d67bf9abd1af60aU,
  0xbe084b0cbcc0cf73U, 0x3c0c680bbcefc46dU, 0xbe4b58a83e0add71U, 0xbd61ed933ddd5521U,
  0x3c08ba333ca25b36U, 0x3c959abe3c7fefaeU, 0xbe6441ccbe7daadbU, 0x3d64c2d9bdfa9749U,
  0xbcff1b593da027c2U, 0xbe944c013da489e1U, 0xbe9041283d3f474bU, 0xbd22596a3c67b5faU,
  0x3ba104ad3cd09509U, 0xbb6bb8e6be341085U, 0xbd52e621bd7097b8U, 0xbcbc2a0cbca0dd0cU,
  0xbdff2a8bbd0a4605U, 0x3dd5297c3d9d11a0U, 0x3aeea7e9bdf290beU, 0x3c0aa8d4bcd885f0U,
  0xbde43edb3d5a10adU, 0xbc0501243e00ad8bU, 0xbe8ce9f1beab40aeU, 0x3dd1b3dbbe0794e7U,
  0x3c060c54bd58d23cU, 0x3df5b040bd9e6197U, 0xbe7bfbec3e909bddU, 0x3d3441013e13d6f1U,
  0x3e2705d3bd35b85bU, 0xbbb76dea3e143dfeU, 0x3df68f0a3c1b0418U, 0x3e250d993d95d25cU,
  0xbda7b6073d65d61cU, 0x3dd23ee83e0478e2U, 0x3be24a8f3e5379d2U, 0x3d5e6973ba972e4cU,
  0xbd9eaf053da5ebfeU, 0x3d451c213dd9be5eU, 0xbea74b55bed84be8U, 0x3ce76d76bec5dcc1U,
  0xbe460f023da3c47dU, 0x3da2269e3d6ec03fU, 0xbea334db3e2ac459U, 0x3e130bb73d9f80c0U,
  0x3de24b98bcc9fd6fU, 0x392b258a3d3b660eU, 0x3dee5cd63d496358U, 0x3e15b5603d7f7346U,
  0xbccb74833d57d0d0U, 0x3d8f4ab03d7fe443U, 0xbdeb93d83c33802cU, 0x3dde3c223d9e0ebcU,
  0xbd9487f73e03afefU, 0x3e0048843be89286U, 0xbe79d63dbecc57caU, 0x3dbff96abe86c07fU,
  0xbe1ea4f23dacb24eU, 0x3d84fcc63d8529ceU, 0xbe5f9e973d7a96f3U, 0x3e39126abbbc76dfU,
  0x3dd4d3c4bc9f2f1bU, 0x3df042d93d9e1006U, 0x3d8f56e93d27bc06U, 0x3e2f7e9b3e5321faU,
  0xbca6110c3df91e22U, 0x3e2fdead3e360bc3U, 0xbc636170bbc1ac20U, 0x3d08b4b8bd307615U,
  0x3cd29aedbc002292U, 0xbe5729a6bdbeb83cU, 0x3d009ef73c42fa94U, 0xbbdfd4413d866f47U,
  0x3dacdfd3bd995c78U, 0x3e3f2d0fbdfcac35U, 0x3d099b0fbdb2b344U, 0xbda87c883cbb0770U,
  0x3d2b007cbcae84faU, 0xbd8c0848bc967468U, 0xbd349e1abdd9bc9fU, 0xbd4e65403ca4ad7dU,
  0xbd9ea0793c7cc6aaU, 0xbcbb2674bce6c9bbU, 0x3da53ed2bb848ac6U, 0x3ccd521ebe03a2c9U,
  0xbdeb7a193c9babb3U, 0xbd7e3d02be05ab8fU, 0x3daa77fdbe3423efU, 0xbc460891bc7c7658U,
  0xbd3cfb87bd0b1d8bU, 0x3e3ebca3be1b75c1U, 0xbe0322b2be4514e1U, 0xbd1130073db115ebU,
  0x3e3944ef3dcaa338U, 0xbd5a792e3d385145U, 0x3d79bb6fbd0ec2e3U, 0xbd95d7aabcbf3ec2U,
  0xbd96dc70bd1a701bU, 0xbd107939bce6517eU, 0xbd44ec5e3e50710eU, 0xbe019ce1bd5aee74U,
  0xbe20ed2d3d55dcf4U, 0xbe2ba480bc36632dU, 0xbe2f9327be8c51ceU, 0xbde6c0d93d4cb01aU,
  0x3d23fd4cbe5830a7U, 0xbd34cf313dc2577aU, 0xbe76cdb7bd5cff0aU, 0xbe40c9e83d705984U,
  0x3e0fc248bd092e2dU, 0xbe116b32be31ef83U, 0xbcf7a25abe0c5d41U, 0xbe285ac73d2c3588U,
  0xbe23b41cbd77d118U, 0xbe0db508bdf7dabeU, 0x3d7318653dc26407U, 0xbe06a42ebc2d1dafU,
  0xbd29332ebda4a007U, 0xbd99ebc4be0a2ffaU, 0xbdb92fc3bdda6679U, 0xbe0c690f3d74d777U,
  0xb987911fbd0b891eU, 0xbd1bf1773e4804c5U, 0xbd39a3b8bd2dc162U, 0xbe4c147bbc6082c4U,
  0x3d7052e33dbfb423U, 0xbe95fc88bd50655dU, 0x3d88cfa2be238827U, 0xbe4a5ff2bd2f2983U,
  0xbe0b7a3fbe0c4971U, 0xbe52c74abe5218c2U, 0xbe92e9763d0c425fU, 0xbe1889d43e018ab6U,
  0x3d6aa3e93d03d876U, 0x3e2d23e9be31aa41U, 0xbdcea172bce6afd7U, 0xbd057bd63d8ceb3bU,
  0xbda93ed33bd46430U, 0xbdbabdac3e2f395cU, 0x3d18e56dbd7c625cU, 0xbbaf6458bda541acU,
  0x3be8e67e3d0cb497U, 0xbd718463bdafbb24U, 0xbdc9b212be11360bU, 0x3c289384bc6cd91cU,
  0xbd337f10bd989ec7U, 0xbdba93ab3b4a802aU, 0xbeacd15dbbd79b91U, 0xbbf17fdebaf596e2U,
  0x3e226fe63ca49f26U, 0x3e7f56243bfbef5cU, 0x3d01f08e3d404f96U, 0x3e0e12d83d1c96dcU,
  0x3dca0e2c3e03c457U, 0xbd532d773e149629U, 0x3d940c68bbddc9e0U, 0x3e3f94303c37b1a9U,
  0xbd7b176dbdb89ac4U, 0x3cce3089bcdc3706U, 0xbcf5907d3d0d1689U, 0x3dfbda593dd39ed4U,
  0xbe09288d3e2d01abU, 0x3e19322f3d5859c7U, 0xbe072491bdf9e93cU, 0x3e1efd04bdef5b61U,
  0x3e10b43dbdc5b93dU, 0x3e5a68cfbd069725U, 0x3e1515b73e25cac5U, 0x3d9fbda63e1cd6daU,
  0x3b0c00563e40bbdaU, 0xbe4b4d953cfce22cU, 0x3e6efd6ebba63932U, 0xbd97f261bdc250c5U,
  0xbe0cc39e3af3aea6U, 0xbe022dc5bd40a163U, 0xbde9f767bdf6c864U, 0xbd635f3fbe05ed37U,
  0xbda236a4bc31b0adU, 0xbc8ad0333c3719c5U, 0xbe826c03be91003fU, 0xbd154b83be2435d6U,
  0x3db306e7bdcacbedU, 0x3df2991b3d0e2826U, 0xbdab67b5bd72296aU, 0x3cf8fdf2bb99b964U,
  0xbe1ea2153e0c5dc2U, 0xbe0045923da2268fU, 0x3d8d1290bcfc0a45U, 0x3d0dc555be5deb32U,
  0xbb8f54f23dd908b0U, 0x3e1eb09d3e86060eU, 0x3d6ec9663d0b9c82U, 0x3e202f1ab990f88bU,
  0x3e0002133dcb8d4eU, 0xbd789c993d3f098eU, 0xbe174fe2bd7dfb24U, 0x3d6cedb4bdcb8e71U,
  0x3d23ef9f3d647b5dU, 0x3d1c8560bca002e8U, 0xbd3478c9be367764U, 0xbcd70e67beae1f90U,
  0xbde5ab4bbd0d6e3cU, 0xbc74fb6b3e679aafU, 0xbd8fb11fbe465c2dU, 0x3dec1ceabe144897U,
  0x3e3dd5ef3e48e7e9U, 0x3dea8b043dd5c507U, 0x3dc6a5c43d17ebffU, 0x3da9c0f13d95c801U,
  0x3dddf3643d238268U, 0x3bacf5753c8352aeU, 0xbe9575283d113246U, 0x3d2b3da03e80abe5U,
  0xbe391b83bd322ad8U, 0xbe59f952bd3b390bU, 0xbc4744eabda2a2afU, 0x3a88c4803d809a43U,
  0xbd4043b6be8fd85aU, 0x3d65f5fa3da84ec2U, 0xbe8aa283be809096U, 0xbbc0b65bbcae8d9aU,
  0x3d8493fc3dbe7139U, 0x3d71ab3c3cf96b8cU, 0x3dac45303d04270aU, 0xbd1ff4ebbce8e789U,
  0x3d3f37a8be276106U, 0xbd94c6babd33f606U, 0xbdf681183e07653dU, 0x3d8055ce3d762fdaU,
  0xbcd274513c5ecc10U, 0xbd2736023d968cd6U, 0x3b4c87a83d710e6bU, 0x3dee4d7cbd637970U,
  0x3d25f2883d3e3728U, 0xbdf5a92cbcb031e2U, 0xbd645689be6032ffU, 0xbe199d3dbe7b7af3U,
  0x3c9b30ac3cbf8924U, 0x3d3f7bf63b67c230U, 0x3d88ab003de59bdbU, 0xbdffa18d3d324532U,
  0x3d5568d4bdf0ea62U, 0x3b5befc7bccbb221U, 0xbe1648c73c7e75b9U, 0xbd7705703d97e323U,
  0x3d5937f93dd0416fU, 0x3d64e9d6bce5d4d1U, 0x3e3706f03e62dad2U, 0x3c8c392d3df42fd7U,
  0xbc57be7f3dc0e36dU, 0xbd2a7a74bdd8f2c7U, 0x3e0bd155be9333dcU, 0x3dacb648be2c12e7U,
  0xbe1a7fe03cb2de99U, 0x3deb377d3dd8c543U, 0xbe8daa683c2cdb3dU, 0x3d0db17d3dc77ae0U,
  0x3e3dcfa03c21cc59U, 0x3d54e0ecbc898e33U, 0xbca45fbabe2700a0U, 0x3e1249c4be6d26b0U,
  0xbe609174be20de93U, 0x3cb9d46abdb75e8bU, 0xbe3c3b49be0856d6U, 0xbdd2fc3cbd8b7f2dU,
  0xbe076b05be2696aeU, 0xbd0b7643bc9236afU, 0xbe5c36793d8f3cfbU, 0xbe20a65ebe3a062cU,
  0xbb12e7e33deda6a6U, 0xbd656214be026505U, 0x3d0edc513c88a08aU, 0xbe2cda33be441e4dU,
  0xbd1e9febbd315f12U, 0xbdfafb32be11b7a3U, 0x3d8bd3ad3d2128b2U, 0xbe36120c3e17153eU,
  0x3aed7499bb9fc9e9U, 0x3b341415bdc17be4U, 0xbc9ed9023dcea941U, 0x3d1ccdaf3c9766c7U,
  0x3d6bb7193d1eb85fU, 0xbc3e4f90be822615U, 0xbd70a3b8bda4d061U, 0x38b959eabe795997U,
  0xbde0903dbe60391bU, 0xbe016647be1d172bU, 0xbe21ad363c08c8c2U, 0x3d0977cbbd1f80beU,
  0xbe4ccd023d89a3b1U, 0x3c4985623ceb817aU, 0xbcbec4f0bd059607U, 0x3ca8b4dfbd9631f6U,
  0x3e2a2b243d9e6661U, 0x3dad75ae3b56bca4U, 0x3d9ee60b3e1301f3U, 0x3dd5ecbd3dfc02dcU,
  0x3d9218eb3de15386U, 0xbe12dee9bf11ed13U, 0x3e364ab8be9a9bd8U, 0xbc66f4503dc18cf9U,
  0xbe28d103bd6da2b5U, 0x3dbe2a243caaa7cbU, 0xbeab5fc13d0e69bfU, 0x3b951d9a3d6c1df5U,
  0x3e6d288a3d466f71U, 0x39a2d0da3b81f4d7U, 0x3e1c4310be54ef96U, 0x3dd1d10fbe9c8f0aU,
  0xbd5b088fbe001b98U, 0x3d2c3454bc20d054U, 0xbe3945d5bdb25b8dU, 0xbe52bec5be839b65U,
  0xbe62f653bc2d9031U, 0xbe37529f3dcd335cU, 0xbe7243a13c3481c2U, 0x3c86fcc03de00009U,
  0x3e4a40a53e1964c3U, 0xbd98d829be2287b6U, 0x3e9cf99fbd6cf2b1U, 0xbd1f70d8bddb1ba8U,
  0x3c4da67ebdd7bf39U, 0xbdadeb603cf7dda2U, 0xbcef479ebd2fb803U, 0xbea2866a3e99073bU,
  0x3cd915703db90985U, 0xbd45dfbfbe0cf4f1U, 0x3d871a753c3bdfb1U, 0xb8cc9096bc1200c7U,
  0x3cc412f23da12ac4U, 0xbd738f5dbeb58e7cU, 0x3d81ca13bd53c872U, 0xbaf0a20cbe5e3e2cU,
  0xbe087c72be85afb7U, 0xbdcf9decbd59ad8bU, 0xbe78a45bbd98518cU, 0xbe074680bd0b4862U,
  0xbe1008eabd22dbf3U, 0xbd2b28bcbbd7089aU, 0xbcc2a965bc4fd0e7U, 0xbb9a3d6bbe66f314U,
  0x3dc5699dbd3e1972U, 0xbd8d77603d922119U, 0x3dd1e37c3e452cbdU, 0xbd3bcfb53de65181U,
  0xbcd14b3f3db77990U, 0xbe0163d9becb8b3eU, 0x3e566f3ebe301150U, 0x3b34df35bd849fc6U,
  0xbeb5471fbe13ff61U, 0x3e0a388fbe108caaU, 0xbea555cf3dae2017U, 0xbd8d87b43c00e7c4U,
  0x3dbce835bd248c08U, 0x3c5836c8bdad318dU, 0x3e5b1720bddf14d1U, 0x3d8328c7bed14a0dU,
  0x3d48e3b5bd41b5dbU, 0xbd72aba1be1d3680U, 0x3e80f6f33e302c08U, 0x3b49a7c83e7a6b7dU,
  0x3c317fa03dc30ac0U, 0xbd2ce1a2bd15e74fU, 0x3ded6776bde270e9U, 0xbe1cb05ebe30228bU,
  0xbdf8c86fbe35a22cU, 0xbe053bc7bc33cf64U, 0xbe5fa785bddea84bU, 0xbd6d6e9ebc71c7baU,
  0xbcf70056be268d16U, 0xbe2e5182be557fd2U, 0xbe8a25b8bcb19eccU, 0xbb9f3bf3be20b419U,
  0x3d852c04bc349e51U, 0x3da5d8f93c1e7f33U, 0x3dc595d53e1703e6U, 0xbc9270163dfa4571U,
  0x3de232123cf08a84U, 0xbe169cd23d1646e9U, 0x3e12d8a0bdcc3f73U, 0xbd9f3d23be139125U,
  0xbe0f3b44bdc48a4dU, 0x3c165d0ebe50ee64U, 0xbe5eccf13da36a76U, 0xbe4d2bcc3db93f02U,
  0xbda6b4e33cb71d4bU, 0xbcd8bd39bd41c53fU, 0xbce703193be8b512U, 0x3db17487be476b65U,
  0x3d6966563b962a92U, 0x3e23e98c3e139876U, 0x3db01f273e44ad68U, 0x3d8e511e3dc80bccU,
  0xbdc0ea4c3e0e9fa1U, 0xbebb140ebe6999aeU, 0x3dca63ae3c895125U, 0xbbc41916bc43a724U,
  0xbeb1233c3c88840fU, 0x3df1cb1f3d20e9d3U, 0xbee223723e1966d6U, 0xbdc22206bcb7891fU,
  0x3dd32b4d3d8b8b8fU, 0x3c8153e73de8c972U, 0x3e0a7cf2bef9349cU, 0x3c6c23f2be4850f8U,
  0x3c55673a3c957673U, 0xbcb6ad12be13ab31U, 0x3e3676213d65f765U, 0x3ce355343e16a670U,
  0x3dfad7b93c00b5bcU, 0x3d12ef72be474ebfU, 0x3e1230c53db3c65dU, 0xbd0e6b183d62d7b8U,
  0xbe12a020be18698bU, 0xbba7fbf03c81a487U, 0xbd83c740bd3b866dU, 0x3d1c3a173c17e360U,
  0xbd96c3c3bd603c21U, 0x3c9d2a7bbd57a41eU, 0x3e03f2d4bd4fc68fU, 0xbc52867fbe307404U,
  0x3e095d1b3cab644eU, 0xbd1998ab3cfd829dU, 0x3e05e3753d3c0a74U, 0xbcc510cf3e47ecd4U,
  0x3e229018bbed60f6U, 0xbde69b02bef6c051U, 0x3d8980c6be6ef292U, 0x3deb994ebd9a8702U,
  0xbe8a55f4be953b5eU, 0xbd910a1ebe109cbaU, 0xbe981a933d8850c9U, 0xbd22e5f33d87196aU,
  0xbe35281d3df61ad3U, 0xbd27dc623cb73d71U, 0xbd8a8cfd3a52db3dU, 0x3da4f6e4beee2aa8U,
  0x3dd0c0e33db02ce6U, 0xbdaca5423d8b39ceU, 0x3e40fc863e27a08aU, 0x3d7bf7783df70758U,
  0xbcee69fd3c8198b3U, 0xbebf8a1cbed8e2eaU, 0x3e40a002bd9e8e96U, 0xbd126a993bc7511aU,
  0xbe61ef9dbb6c7885U, 0xbb5eb43b3da73da0U, 0xbe8761e83dfcd751U, 0x3de548fabb7d7176U,
  0x3d10e9073dbf0f01U, 0xbd26dd13bce23049U, 0x3e0ad728beadbdbcU, 0x3e08ed90be75f514U,
  0x3d4c2ebb3cd79a41U, 0xbdcd39afbe1040e4U, 0x3dccf9653d931d29U, 0xbdc72e103d27beb8U,
  0x3cc7ae183d10eaa2U, 0xbcbdee3a3d923c1fU, 0xbd8bae97be3d4e1fU, 0xbbbc8552bde48c0eU,
  0x3ddb53713db3fdc1U, 0xbdf9e61cbd1f03ceU, 0x3d7e245dbd82c830U, 0xbb9c98373e211228U,
  0xbdcd9392bd82b965U, 0xbd9e7408bd0f6f4cU, 0x3c2881c13ddf7944U, 0xbe0128bd3e0d326cU,
  0x3dffabddbae0f28aU, 0xbd3500acbd70891fU, 0x3e1048e23e09544dU, 0x3d894e523e3783bcU,
  0x3d4c6fe13db7d92bU, 0xbe09ebb4be488864U, 0x3e11443bbe7f8f02U, 0x3c7c3f75bddff2e7U,
  0xbe8d3f19be935e7eU, 0xbd003fadbe2b186eU, 0xbeca425b3d96e698U, 0xbdebc1e03d82e358U,
  0xbe3f56e83d5dead6U, 0x3c8a9798bd00571bU, 0xbe25ace7be17a0f1U, 0xbd626487be8bf4c1U,
  0x3d378410bc2da644U, 0xbe0b46903dc5b02fU, 0x3cd31b743e1624eeU, 0x3dd5c8e03d4ccce6U,
  0xbdb5578a3d19910fU, 0xbea8141fbecedb17U, 0x3e0a20c8bdb79505U, 0x3cdca3eebd914a92U,
  0xbebbfcc6be1e844bU, 0x3c1736a43d007858U, 0xbef990d23dd331c6U, 0x3ca8df86bc7239f1U,
  0x3da0d2e2bceb755eU, 0xbd096d3f3c0fe88fU, 0x3da69fddbec61bc0U, 0xbc8d3907bed0e1fcU,
  0x3dae3b06be19f5e4U, 0x3d8b301ebd12f31eU, 0x3bb66951bda27d71U, 0xbdbb2f86bcdf3d39U,
  0xbe4eb8333de50a13U, 0xbe2900233d110b6bU, 0x3db188233d2f1ceaU, 0x3d8ba4753da1964cU,
  0xbe1b74443cf0eef4U, 0x3b78a0b3bcf126caU, 0xbe42c0aabd10a7e5U, 0xbcd8e4f8bdee4099U,
  0x3d88ac223d852088U, 0xbcffd68b3da562edU, 0x3dde662fbe43fe31U, 0xbdf73106bd836e8aU,
  0x3dd58d4cbdf94354U, 0x3e02bd29bdade82aU, 0xbe0ed3f8be281334U, 0xbdc4323abe476e24U,
  0xbe05a4e43c9e1212U, 0xbe233352be5dd345U, 0xbde0eb723dcde83aU, 0x3c9b73643ddd964bU,
  0xbdb5627ebdc1eea4U, 0x3b436851bdbb7f76U, 0xbe00a04fbda28a39U, 0xbbb5234abe068428U,
  0xbe46e9e43df1caf7U, 0x3cd3edbc3d1ec9c4U, 0x3ded6966be9b17a4U, 0xbe0461fcbd83298fU,
  0x3d317a4b3ca59536U, 0x3d33d9b4bcced394U, 0x3d9649e3bd06fc05U, 0x3d87aedebc23d612U,
  0xbd88435f3de3ea95U, 0xbdc5cf75be255345U, 0x3d01b9193d98aeedU, 0x3d032f293c7e89f6U,
  0xbe1ee7bcbe829875U, 0x3bafe8e7be33c94fU, 0xbeac9f9dbdaa943cU, 0xbd15c551bd46e3e9U,
  0xbddcbc003cb6aedaU, 0x3d5109db3dc648dbU, 0xbcb29114be6f4ce9U, 0xbd8b6e25be4074f3U,
  0xbdf953123d6fe4f4U, 0xbd3eddbf3da20320U, 0xbea203cdbe3551aeU, 0xba88b506be780f8aU,
  0xbdf3d9033d847419U, 0xbb73911a3dd5178aU, 0xbe59378b3db6eeddU, 0x3dc767443e1bfe81U,
  0x3d0e16a03de7496bU, 0x3db46a203b976456U, 0x3ce914f63b197da6U, 0x3d802fc33ddd2d50U,
  0x3d2d22533ded3b8fU, 0x3d95b2ed3cbbdbfcU, 0xbcdfa8a2bd264e5bU, 0x3d9b6fd3bd7e1041U,
  0xbdd8ac713e100fbeU, 0xbdd111363e1110a3U, 0xbe24267cbecb7fa9U, 0x3ca0b9c4bdebd5feU,
  0x3d803588bdd40e10U, 0xbcc3f8ffbd426457U, 0xbeb62b8c3d683d6dU, 0x3d9b9aba3dc5efabU,
  0x3d1a0c0bbcf4c6fbU, 0x3c77b1473d1e2742U, 0xbcb92e463e0133c8U, 0x3ddca5703e24dfa7U,
  0x3caa99c83d61e185U, 0xbb1af9433e10730aU, 0xbd928ac73dc7030fU, 0x3d97f604bd6e4827U,
  0xbe18eb243e1277feU, 0xbdf2c4443d99a6ecU, 0xbd9a3590be9da614U, 0x3d550b0dbe67276cU,
  0x3daf179cbe4a1b15U, 0xbe8948dbbe8e6808U, 0xbe8338273d96a6d1U, 0x3dc9b4aa3d18c212U,
  0xbe280d28be94f110U, 0x3d9e9da4be37c067U, 0xbe9a1817bc0d6640U, 0xbe0f30a83de0cc19U,
  0x3dce520a3d3528afU, 0xbbcd826c3ca2e6e3U, 0x3d079b99bd8f6d9dU, 0x3d15c718bec73b8aU,
  0x3c99b1b73cda3d87U, 0xbda7a9fbbe236c27U, 0xbe81288cbdce91c7U, 0xbdc4fba8be375741U,
  0x3cf0c2c3bd5bc579U, 0x3e0e2dc43ec36f76U, 0xbd747611bea35e37U, 0x395dc7dabe1cba3aU,
  0x3d99ce423dd801a7U, 0xbb32ec0b3cbc7492U, 0x3dc67f66bb6e2797U, 0x3d898c003d728d12U,
  0xbd837cabbdc30d23U, 0xbd8b8525be0f44a6U, 0xbe9cdf323e63e353U, 0xbd448efd3deabd1fU,
  0x3e28bec13d89c5b5U, 0x3d3a2a2abdb5d718U, 0x3d5416ed3e15bae3U, 0x3d892efe3e1a011bU,
  0x3e2a6c133de3c304U, 0xbdc591d23dc03b00U, 0x3d1276a0be475456U, 0x3d937ceabd8d9911U,
  0xbd2f12a13de6b1e8U, 0x3d7be0fa3d231d2eU, 0x3d4c988ab901bd33U, 0x3c63b1a23dab4efcU,
  0xbcd79ca83d6a6a3dU, 0xbbf251f13d61e28cU, 0xbcf241ef3d84c85fU, 0x3de9101abc102d9cU,
  0x3dd258d73dd2b16eU, 0x3cda69213d921703U, 0x3d8bb4b53d002ceeU, 0x3db7fb043da13719U,
  0xbcc1a24e3c41aa87U, 0xbe974bd9be705920U, 0x3e14ef27be45e96bU, 0xbd2cc131be147db0U,
  0xbe64fff53ca8fad9U, 0x3d4776b83d042defU, 0xbe58e02d3dec1dfbU, 0xbd9eb6babd657714U,
  0x3e0dd7523c8c8315U, 0x3d85bff6bc9f886aU, 0x3d4418bdbe2535c9U, 0x3dad6141bea0a88fU,
  0x3dfcb49b3e1c79c9U, 0x3ca7b8003dbaaa42U, 0x3e18e3443dcfdb91U, 0x3d415b253d82c7adU,
  0x3e194e0cbc85a9c7U, 0x3cde18e5be876cd4U, 0x3e0cc1b8be1c5a51U, 0x3dea8be4bd8415aeU,
  0xbe7d7919be64dbdbU, 0x3d953c76bd6903edU, 0xbe48ab6e3e267677U, 0xbce7eaad3e25b507U,
  0xbcbd49debc5ec4efU, 0x3dd604c03d5ef2f5U, 0xbe465ce2bdab4bffU, 0x3e2f6fb3be8ad3a4U,
  0xbc18322d3de35155U, 0xbda091173deffc02U, 0xb9b6388cbd714204U, 0x3e0a2099bccf1673U,
  0xbb2f5236bcaa2d35U, 0x3c8ad4f9bd8e0b3bU, 0xbd53a3d3bda088c6U, 0x3dea6275bbb03feeU,
  0x3c0e94a03d53ee1dU, 0x3e4494fabc161d94U, 0xbe1496103de2e582U, 0x3d0fc8853c8bf9b6U,
  0x3d57037bbda37ea5U, 0x3e05b596bd34376fU, 0x3da621cfbd0b66b2U, 0x3dd6d701bbe14c18U,
  0x3d14e39c3dfdf269U, 0x3d7f71103dd0781dU, 0x3d2029093d3261e6U, 0x3df17b3bbd4d5deaU,
  0x3d09c6c33d0fff64U, 0xbe24b560bb27d7f7U, 0x3e1cddbfbd2051c0U, 0x3da6707f3c8f8500U,
  0xbd89e1f1bd8c4978U, 0x3db3f18e3df3685fU, 0xbe20bd2f3cf3c71dU, 0x3d8b3edd3c2b307aU,
  0x3dcca7b53dc191b4U, 0x3c08dc923d938906U, 0xbd621b3dbe12ce66U, 0x3e0f7c49be3ceef0U,
  0xbd83e5e03d5a0f6cU, 0xbddf515c3ce479c9U, 0x3c2163193dae380eU, 0x3da42cd33de68a8eU,
  0x3c5036233d0a3b11U, 0x3d7daccdbe2bcbf8U, 0xbd41ef59be915df2U, 0xbd7f32a5bd5ff750U,
  0xbdd191dbbd7b3dc3U, 0xbcdef7a3bdb71b31U, 0xbe03028cbd4b0526U, 0xbda184c1bdd0f64fU,
  0xbd9257393c90d5e8U, 0xbd527283bd630504U, 0xbd11dd18bd8e5301U, 0x3d1261adbe398eb2U,
  0xbbb6327fbd155e73U, 0xbe691688bd348c3cU, 0x3da61dbe3cc85b87U, 0xbc8a3cfbbcb9040dU,
  0x3ccfc514bcf16fe3U, 0x3c867db4bd89d6e4U, 0xbc37c7f9bd63e446U, 0x3d623cd23c3ef0e7U,
  0xbc954320bd599e93U, 0xbceb3791bd84fd18U, 0xbda8cd5b3cdeb79fU, 0xbd3fbb043cf675d3U,
  0xbd9c4be53d46f5ddU, 0x3d9abbc53d176228U, 0xbc8ed4b1bdbe2704U, 0x3d9b7518bd23ab6aU,
  0xbd5493be3dc8e8b2U, 0xbe5e8b423c3bf710U, 0xbde456e2be12cb19U, 0x3d6b95fbbd901677U,
  0x3e06547cbe225bc0U, 0xbd66ba57bdfea868U, 0xbd6d1fd2bbeba46eU, 0x3d201888bd29f481U,
  0xbdf5db833c6bf7eaU, 0xbb2d31883da52205U, 0xbd7d3e313d1deba9U, 0x3e1a1088bd5f0557U,
  0xbdb36d93bd21670eU, 0x3dcf96b43a9e9447U, 0x3c9bf4df3d330b34U, 0x3da07d7ebe054dfbU,
  0xbd34238d3d1125d8U, 0xbdb588d9bccfba6fU, 0xbe2e1bcfbe631e83U, 0x3be908d3be09295eU,
  0xbdd41c82be1aa2e3U, 0x3c72e419bddc0005U, 0xbdc027d9bdba5ebcU, 0xbc263784be12ac17U,
  0xbdaaf2ccbd0b8045U, 0xbd7e6b783d8568baU, 0xbdebc13c3d876e5eU, 0xbd873c9cbad9d2a4U,
  0x3b4faed0bc758495U, 0xbca6b9983ca784edU, 0xbdc84f40bdeb63cdU, 0xbe010e20bdc86dacU,
  0xbdffbdf53d9fff6fU, 0xbe9919f3bd9eb98bU, 0xbdf22837be1fa2e5U, 0x3dcc2f25be321a66U,
  0x3d064415be2a072aU, 0x3dcac0873d099afeU, 0xbe9f4940be4ad478U, 0x3d8c91423c95aaedU,
  0x3e029c153d519f1aU, 0x3d801f803dee9164U, 0x3c9aa328bc531ed5U, 0xbcc22d7ebba058ecU,
  0x3b7eaee9bc2569e5U, 0xbc6e9d4cbd28cb37U, 0xbe2a1773bd0d8779U, 0xbd33d40e3c73452cU,
  0xbd6313f8bbdaaab9U, 0xbe1c5148bd0e66f8U, 0xbd62beb4be8540b9U, 0xbd33edcb3b77b6d0U,
  0x3e22c531bd8f796fU, 0x3e6cc06a3de33831U, 0xbc944de83d294948U, 0xbbf96cb0bcc9fabfU,
  0x3e3a15a53e6fdb17U, 0x3c61ac0b3e6fa1beU, 0x3e6772e33d89c2a0U, 0xbd004f9a3d9879c3U,
  0xbb3c4bb73d3f6970U, 0x3dd0e774bcdff477U, 0xbca045033e0d0f13U, 0x3d9c44a03e41ee16U,
  0x3d3f8caa3e13fc85U, 0x3d370feabd654cfeU, 0x3e0e95f2bcbb81caU, 0x3e0b5b32bc7af49bU,
  0x3e055f5a3d9144a2U, 0xbd70d95fbdb58f4bU, 0x3d31f2ff3d108231U, 0x3c02b6d3bd535cbdU,
  0xbd54800cbdf344d5U, 0x3d7378e93c47dcc2U, 0xbe34cb7b3db9403aU, 0x3db29c843e0c4427U,
  0xbc16e4823e0dccf8U, 0xbd454ee73ccab381U, 0xbe06859ebd96ae5cU, 0x3e06664dbe6155eaU,
  0x3d0d3adfbc8e4e9aU, 0xbd1ca2443d48cd9aU, 0x3e0f0e273e8328ccU, 0x3e3ccabd3d803a17U,
  0xbd8102803cc161edU, 0xbd6f4b72bd752b3fU, 0x3e8f3e55be604f93U, 0x3d6ac6e83d8767c2U,
  0xbcedf870bbe0737bU, 0x3db54f823dd05028U, 0xbcb4cc6f3e075719U, 0x3e4a313c3d90750bU,
  0x3e1c40fdbb7152bcU, 0x3bf22c913ca3a5bcU, 0x3e04e5f5bca9fe82U, 0x3dd7c86a3de21980U,
  0xbd88c113be6351d0U, 0xbe8e235e3d1425dfU, 0xbd3ec7fabdaf893aU, 0xbde7f668bdaf0799U,
  0xbe862e4abe3aa7f6U, 0xbe9a3fb63e10e661U, 0xbe480497bce618ccU, 0xbe2e0941bc12a129U,
  0xbd2a97a93d5e956aU, 0x3c45a60fbe303b80U, 0x3d8e13c2bcd03f59U, 0xbdaaec65be6035ddU,
  0x3e0ee8d9be598e66U, 0xbd92e242bdda692dU, 0x3e9416f9bddb26ddU, 0xbd9b37cd3dc9b899U,
  0x3b339845bc20566fU, 0x3d095537bc064841U, 0x3b68c51ebca1f997U, 0x3dac317ebe3096b5U,
  0xbe982ed93d6f8111U, 0xbeaadf39bd47ef06U, 0xbcddc6efbe371797U, 0x3dfacd54be0cf48aU,
  0x3c8dcf723dcaa8f5U, 0x3e2f9bb43e41aa2eU, 0xbdc82f393dce3e88U, 0x3e36c0cabd37af12U,
  0x3d2c1900bcab9adaU, 0xbd4b0bc73cdf7d60U, 0xbe33c7d9be9bbc15U, 0xbd24f6dfbd10003dU,
  0xbe124e3dbd6acec9U, 0xbe589b523c2eb677U, 0xbe45bb873c473113U, 0x3cfcb8a0be9b8c2eU,
  0xbeb308eebe561905U, 0xbe5d28c33d71ef43U, 0xbda6b770be34e411U, 0xbd280c69bd69c61fU,
  0x3d2de9acbc971ee0U, 0x3d5640b23d929277U, 0xbd903313bd530874U, 0x3db14622be34432dU,
  0x3ce70b6ebdd5ffe5U, 0x3d47b2ab3d6f0832U, 0xbdc43757bdc91d48U, 0xbdc2c07d3e0958deU,
  0xbe88e400be77b566U, 0xbda6fda43d305c76U, 0xbeb4e973be68f36eU, 0xbe0b123bbea7533dU,
  0xbeb27fb2bdffbc36U, 0xbe504157bcaefb63U, 0xbed5576c3cab517aU, 0xbc9fcd02bd1b7a95U,
  0x3b985bb4bca21742U, 0xbd473f38be768707U, 0x3bb5fcaabdbd0274U, 0xbdd1aaa8be524db6U,
  0xbe07d006bdfc9642U, 0xbd80e155bdb8b55cU, 0xbd358fb6be81becfU, 0xbe130715bd47789aU,
  0xbe22b7153ce1729aU, 0xbe148fe53d21a9ddU, 0xbe01ed1cbcb50fe6U, 0xbd9bb034be1ac7bcU,
  0xbe01cfc5bd27c8c0U, 0xbd85a0ce3e418d1aU, 0xbe1c8dcbbdbcf458U, 0xbd8e6c243d5dc943U,
  0x3e2277b83dca26c4U, 0xbdd87ab33d59089fU, 0x3de60246bd223374U, 0xbd8dde12bdbb6917U,
  0xbce33ffebaf8a540U, 0x3daefc29bcfec016U, 0x3c9f0425bda48801U, 0xbd815dd53e0bd6f8U,
  0xbe0384453de0c5b6U, 0xbc2d3bd3bd5475d1U, 0xbdb4736cbe22fb0aU, 0xbd16b7d4be041638U,
  0xbd0707c1be187378U, 0x3e13e806bda5e9daU, 0xbe3e2d8d3dd8679bU, 0x3cbbacca3d247d49U,
  0xbd0aff893ac29188U, 0xbdb475323d3c729dU, 0x3d74db67bc59a3b0U, 0x3de0c795bcbf2144U,
  0xbdcaa00e3db4a3fcU, 0x3b4741823c3ccb7fU, 0xbda3e5c93d1816f4U, 0x3d9f84c5bcbdca43U,
  0xbe2434053d704bb3U, 0xbd23b5f83dd572d6U, 0xbeba8d56bed3a3e8U, 0xbdd25e9abe465681U,
  0xbd6284e6bd946e4eU, 0x3dc1696bbd252191U, 0xbec68ba03e834c27U, 0x3da2fa593e10a1e5U,
  0x3dcae94dbd03d073U, 0xbde53821bdf0485bU, 0x3e0be194bd4f12deU, 0x3db55bfd3db7289fU,
  0xbde6776c3cf0b62bU, 0x3c8ed3433d0341b4U, 0x3d4a013e3e0d09b7U, 0xbda473cfbd7e8f4cU,
  0x3d40088b3de7db8eU, 0xbe53a3333dae7fe9U, 0x3e5dd8413e0caaf3U, 0xbd74e1d43de55aabU,
  0x3e27aa713d1f3cc1U, 0x3d5daf7ebe78cedbU, 0xbd513185bdecc7f9U, 0xbd4e67d2bd81bf05U,
  0x3cc1ce69bc4e01f1U, 0x3b91c48fbd264e95U, 0xbc9b43e9bc4fbe3cU, 0xbe06dd863d3dc8e6U,
  0xbaff20bcbd9c0551U, 0x3d75e64abc2a9357U, 0x3db95beebcbfedd3U, 0x3c15dd90be210b43U,
  0x3dd37e12bca69bb4U, 0xbc0ead193d3d8a21U, 0x3d74fdc03de29aacU, 0x3bacedd53e43d05fU,
  0x3d92fa10bd8220dcU, 0x3dff4dccbe987455U, 0x3c0b7c79bd44dca5U, 0xbb6255203d157485U,
  0xbdfe88203d63cb2cU, 0xbcaaa1e73c36e55dU, 0xbe69547c3dc72bdfU, 0xbdc93612bc9611ceU,
  0x3dfc42ad3d1c4422U, 0x3da2e0353daa9ad6U, 0x3e71d77e3c25199cU, 0x3dc177b7bdc7e317U,
  0x3d948b803b812073U, 0xbc358bd43da5cd49U, 0xbd7935fc3b82cbdbU, 0xbc211a913da4c2f5U,
  0xbb9e6b1d3d5bb61bU, 0x3d7008c8bdfd8a21U, 0x3d08d26f3e05fd31U, 0x3d926dd63d6e4e90U,
  0xbc8ae5a6bd9282fdU, 0x3d25d890bbc466d0U, 0xbe43e6e8bd824ae3U, 0xbd0428603a89b105U,
  0x3cf7303e3e299d2fU, 0x3dffa1993cd2ef98U, 0x3c4b1a2bbd5e7469U, 0xbce7eba3bdd425caU,
  0x3d45afba3ddc5817U, 0xbea3653dbe2ceb50U, 0x3e6be3d43dfad598U, 0xbcc019ce3defda74U,
  0x3df925a1bd4765bcU, 0x3e469b9e3d46d043U, 0xbd2e2421bea44b3fU, 0xbe2cb6a2bd78b9a8U,
  0x3d8bc31bbd94f366U, 0xbdc19fcabc849847U, 0x3e359c58be17bed9U, 0xbde8c80e3ca1e343U,
  0xbe83c996be02d6d4U, 0x3d52b2dabddde48dU, 0xbe03f4f73dd19ac0U, 0xbc997c7aba82cf8fU,
  0xbd6aa039bac86986U, 0xbe53efcb3d1d7ec7U, 0x3df77e15bd0dbb74U, 0xbd9418dc3dbca7edU,
  0x3d5f9657bd94b44cU, 0x3e40957c3c504ed5U, 0xbd94bf4b3dc02a36U, 0xbc5f0e643cbbb6c8U,
  0x3e2154d8b9e4513bU, 0xbd85f102bbc0108bU, 0x3e0f7202bd024b6cU, 0xbdb429553a54bdd5U,
  0xbbedb185bd5093e4U, 0xbd8b2e973ac33f0dU, 0x3e5412d93de8499bU, 0x3dd3f8b63de30133U,
  0xbc8b58d3bd31a04dU, 0xbdedb3ffbdaf74b8U, 0xbdcb025abe2a88eeU, 0x3d79c37fbdf84eb5U,
  0xbdc1f084bd8123bbU, 0x3e46418a3e29b2ecU, 0x3ce580c7be3c5646U, 0xbd0c04d1bda0cf55U,
  0x3da330083e2eaa2eU, 0x3d0fad403e133257U, 0x3e068ac93d486115U, 0x3e2fb7a2bc674eb8U,
  0x3e1ceb8cbcaa5775U, 0xbdca47b3bbcfd185U, 0xbdf4b4ef3df179a3U, 0xbc4eb4e03e9a8a25U,
  0xbe67f2bcbe35775aU, 0x3d42842fbd6fd18cU, 0xbd98343abd599a78U, 0xbe088f2abd3e9b4eU,
  0xbe08ac64be5d0663U, 0x3dfb406cbdd38e4eU, 0xbdf89abd3e9c1c3fU, 0xbe4dd24f3e383494U,
  0xbe00e88ebe30a1d2U, 0xbe6c48b1be1776a0U, 0xbd8af198bd9bbb5bU, 0xbe565339be885a83U,
  0xbe85d5cb3cd83462U, 0xbdcc309ebd1afbacU, 0x3c9a0b0abd9a356aU, 0xbe80c96dbd654606U,
  0xbe13b591bd7d9d5eU, 0xbc852e93be116ebcU, 0xbe451bb6be1ff79cU, 0xbd4bf63a3d2d5d56U,
  0x3bc1e0a9be7c4e6eU, 0x3d7de30e3e23e884U, 0xbe9db0e43e8a614aU, 0xbd7d2d763ddef4bcU,
  0xbcbda5d2bb5edf85U, 0xbe10efcebde625b2U, 0x3e343a94be32f920U, 0xbe634ea1bde6e0a6U,
  0xbe0234a5ba932f40U, 0xbd936cd5bdba3a34U, 0xbe381a163d9e333fU, 0xbe7a54bd3df7f165U,
  0xbe1bb3d5be86b236U, 0x3e322622bdf18eadU, 0xbe95cd0abddfc146U, 0xbe80e037be1190daU,
  0xbe262487bc80c808U, 0xbe26d8423e59f60eU, 0xbe5cb4ab3e7ca7a8U, 0xbe28d920bc8e398aU,
  0xbc84b41d3c371832U, 0xbe0eb7ccbe81c3faU, 0x3daabf8abe27c925U, 0xbe6ccbffbe566a84U,
  0xbdbf777cbdd377feU, 0xbe1e7c00be13ddc5U, 0xbe0476993d4a2e7cU, 0xbe791d7b3e2850baU,
  0x3d5581f3bddce9c7U, 0x3d31d6b13ce58de3U, 0xbb6858013d8cad2dU, 0x3d66c897bbf35af8U,
  0xbe6a5c0e3e18d7d8U, 0xbe0125513dfec437U, 0x3e37e8e1bdc1e68aU, 0xbc6672d0be56ebd5U,
  0xbda93e313d80978dU, 0x3d175dc63d99c867U, 0xbe347f543d14ddddU, 0xbcd63832bba95dadU,
  0x3dfa552dbcf6a427U, 0xbc9328013cf24ec7U, 0x3d062853bdf9c808U, 0xbdf67bddbdd263f1U,
  0xbdd99f52be5d2823U, 0xbcca11dc3c8c8ce7U, 0xbe91ff12bdeddbbeU, 0xbd3a51a1bea301acU,
  0xbe93ac2d3cfc8966U, 0xbe378a2d3d1bd47cU, 0xbe68e2d23e07b7adU, 0xbdd2abdbbd6aa399U,
  0xbca482993ca69cbaU, 0xbded0f96bc716ae2U, 0x3b868d02bd53386cU, 0xbdd3fd40be4b9516U,
  0xbdd859123c6cd0baU, 0xbd47b102bddd7feeU, 0x3d3b7254be331166U, 0xbdc8f1943db7f747U,
  0xbd002a65be634e62U, 0x3d0aa4523d96e899U, 0xbeb0f0e2be09bcf9U, 0xbd72eb4abe97759eU,
  0xbe913191bced74efU, 0xbe930f503d8485dcU, 0xbe7d92b03e812643U, 0xbd6d7e15bd31c218U,
  0xbdfed196be0605b0U, 0xbde87c86be3044faU, 0xbded0a50be22fafaU, 0xbd5ed780bd874c4bU,
  0xbd84a77ebc286afbU, 0x39a19819bc54c4e9U, 0x3d809c21be5fc8d3U, 0xbe276eacbdaaeec3U,
  0x3d0f4d753d585facU, 0xbe056f393d697fdbU, 0xbd349a76bdf6d147U, 0x3ca00309bd8df140U,
  0x3d2b49d2bd558705U, 0x3e1be4813ad71f51U, 0x3d8df462bceebb3eU, 0x3d4ea9083d19db7cU,
  0x3cb4d0f63cef52ebU, 0x3c883d683cf9ee43U, 0xbd892ab0bd66f5e7U, 0x3df13a203d229235U,
  0xbe069df2bcd2964dU, 0x3d2407023de1e70aU, 0x3c51c21c3d79cccdU, 0x3d8edb2fbdb8afd4U,
  0xbdc8aafd3db6040aU, 0x3cfce5f9bc92e4b7U, 0xbe07563cbeb641f4U, 0x3d8b5bc0be39402dU,
  0xbd71cb6abd946c53U, 0x3e2aa6e13d40a8b9U, 0xbe6f978f3e41025bU, 0x3dc1dba53e578c49U,
  0xbc722d4d3df16ea4U, 0xbc7c88ed3d75d925U, 0xbd5aef583d6358a5U, 0x3e0ebc883c8cf5ecU,
  0x3c2b96b83caef547U, 0x3d050c663cb2b280U, 0xbc06a4073d59724bU, 0x3d6125b5bd9f687dU,
  0xbe0ef5393ddab646U, 0xbd1aa52c3cfd2bebU, 0xbe785704be78e3b8U, 0x3d7b53aabdd49775U,
  0xbc3872673c8fa733U, 0x3d097c6d3e00057bU, 0xbe8538d03e32ab48U, 0x3da21d8d3e505590U,
  0x3e2a62ad3cec7678U, 0x3d85b549bdb07cb4U, 0x3d3c6d6b3df75a8eU, 0x3dafa1393d6d03f8U,
  0x3c3e7c0d3e3c6079U, 0x3d50133c3dc29d1dU, 0x3d5032cf3d79d430U, 0x3dd57b08bc98eecfU,
  0xbdc38f53bd001024U, 0xbdbeb4f2bded4a27U, 0xbdfeb430be1a633fU, 0xbdbde611bdd815afU,
  0x3d1de93bbdf536a2U, 0x3de3952fbad8eba8U, 0xbd51877ebe2a300dU, 0xbc99d183be2fecd1U,
  0x3c9f472e3d6cdf40U, 0xbc0b427a3db6155dU, 0x3d96c110bd3a5b54U, 0x3d0c9f8ebd9b4e65U,
  0xbdd02249bda174b8U, 0x3d706b83bd8a9cfcU, 0xbe0d24573ca842e4U, 0x3ca7cab13d8c68dbU,
  0xbe4bc2673dde0d11U, 0xbe4d5447bcdd3a7bU, 0xbcfde154bdb71134U, 0x3caf3eb4bdf9ac70U,
  0x3e05690dbe4b4ea7U, 0x3de175453d920379U, 0xbe509410bcdd6783U, 0xbdf259553c9ad18aU,
  0x3e298820bc155f97U, 0x3d33c1e33dcf170fU, 0x3d69b391bccd5848U, 0xbd7c9fe73d619567U,
  0xbd2b044abd4795c5U, 0xbd71d3ff3c15bbcbU, 0xbc920a6c3dc80bbfU, 0x3d55b5db3d67287fU,
  0xbdb434e63de72628U, 0x3d47fa943cac5a4eU, 0x3d93c684bd177642U, 0x3db685ddbd870959U,
  0x3dabc8803d076bd6U, 0x3e0b65a73d59a9f3U, 0x3bc651d9bd8172cdU, 0xba4fcacbbd51a86aU,
  0x3d8c53af3a90fed4U, 0x3c96670b3cd223beU, 0x3cf97029bd56393fU, 0xbd806cc03e1dd062U,
  0xbd92ab2d3d3f97e3U, 0x3cd0bb3ebcc24c1dU, 0xbe314bc33e12ef77U, 0xbc8c3da2bbddf7a3U,
  0xbd9edfc4bda6343bU, 0xbd491aa4bdf8dbcbU, 0xbde19f42bdeb97d5U, 0xbe0fb270bd4ae833U,
  0x3b27b97bbe20169eU, 0xbc6541b6bcdc2911U, 0xbe31a5f5bd0b869bU, 0xbdcc05b9bde26c43U,
  0xbd82204cbd1a03ebU, 0xbe6e14ecbde458e4U, 0xbd885dc2be29bff0U, 0xbd64429dbd40565dU,
  0xbe389808be0abbd1U, 0xbe3b143fbdf84cdaU, 0xbd89f15abaa2239eU, 0xbe171da23ce7f886U,
  0xbde17783bddbc162U, 0xbdaef098be2c31c4U, 0xbd04647bbc6b7245U, 0xbdc62152be247127U,
  0xbe433b6bbd59c69bU, 0xbe4f8d09bd863877U, 0xbe631e7bbd856cc5U, 0xbe257b06be534c1cU,
  0xbe28189abdfafa0bU, 0xbe4dffb1bdea56afU, 0xbd1b02dbbdb77ad6U, 0xba9e2c72be585978U,
  0xbe45e812bd8e26ebU, 0xbe5be15bbe28c418U, 0xbe0fb100bdfd68c7U, 0xbe1fac6dbdf3d15bU,
  0x3d7619bd3d215d0aU, 0xbbbb275abd1b9b82U, 0x3d168aec3e0eca40U, 0x3d57b82d3d850604U,
  0x3d31855c3d9bfe50U, 0xbe148bc5bdec59cdU, 0xbd195fb8bad5d4f6U, 0x3cca0259bd1125cbU,
  0xbe8903e7bd4eeed8U, 0xbdba47efbd7263d8U, 0xbe5ba485bdb7a10cU, 0xbd30b69bba80c793U,
  0xbe311653bbfd64caU, 0xbc4f4633bcef42b6U, 0xbe2fb363be4661cbU, 0xbdc39480be2ffc29U,
  0x3a75e522bc10a319U, 0xbc48e8663b90a049U, 0xbe0f5f47bcf70067U, 0xbdbfc216bd967f97U,
  0x3b16dc3bbcde00dfU, 0xbd1b31ccbdef3a2fU, 0xbe1c3288ba9e8076U, 0xbccc81bb3cb0c047U,
  0x3bb839debe1cac32U, 0xbe16c151bd7bd3adU, 0xbd57df693b601affU, 0xbd916546bdc3d5e8U,
  0xbe0acdc6bcbe45b6U, 0xbd82e3d5bd90462bU, 0xbdfd78f8bde85548U, 0xbdf51320be1a04e6U,
  0x3dbe9cfd3c8c2965U, 0x3e005b263caf7fe3U, 0xbde71357bc61dbf5U, 0xbd2ba6d4baffadc1U,
  0xbd59b9f03dc00aa5U, 0xbe8324843dab9e77U, 0xbe048e293d4bb79bU, 0x3c9dca4d3d7dae62U,
  0xbdb5ced1bd7efc47U, 0xbd8cecf8bda1cb91U, 0xbd6e65e3bdfd553bU, 0xbdc665cbbe0a3613U,
  0xbe7c69d7bc92e8a6U, 0xbd6b16a2bd2597a7U, 0xbe34f300be429728U, 0x3d0d8a02bdd0ad50U,
  0x3e04c4b0bdde3cfdU, 0x3e204e223b8bd90eU, 0x3daad6be3e29b668U, 0x3c0ecbd93c3a0758U,
  0xbe348b763dbad58dU, 0xbe5cc5efbd527130U, 0x3e1d5911bdae9efeU, 0x3e1c6e04bc38ede2U,
  0xbe7929ff3dd936b5U, 0x3e54a7ae3e2e64edU, 0xbe8805373dbcfecfU, 0x3e406fbbbd89b2c8U,
  0x3de78a993ca53d77U, 0x3d644d393e013bc9U, 0xbd9ea91cbec05799U, 0xbc6b8dedbe035816U,
  0x3d82a4b9bd0760b5U, 0x3e18fd3dbd3d74e5U, 0xbd37cc493d842482U, 0x3de3f32d3d97016cU,
  0xbd1204003d83f555U, 0xbd999c383e1a79d8U, 0x3df3f39e3d4164b0U, 0x3c6df7c53c316b42U,
  0xbcb188243e2cdfc8U, 0x3c1a1956bcfe6d26U, 0x3bf06244bd95843fU, 0x3c23bd0bbe18b3a6U,
  0xbdb61f963d5c3d68U, 0x3d8973473d532758U, 0xbdee12bcbd83a720U, 0xbbf2224d3d80e113U,
  0x3dbcb580bdc375e2U, 0x3e32ebb8bd087007U, 0x3d24b209bd7e58fbU, 0x3e1cfd5fbdefd857U,
  0xbe0b93cb3e0e79afU, 0xbe95b58a3def3a5fU, 0xbd31358dbc14d763U, 0x3d4aa482bdf702b6U,
  0xbcc99d193e3240cdU, 0x3e7024603e64fcdcU, 0xbe43a99dbcc1da71U, 0x3e0ea6d1bcf2aafeU,
  0x3e285c363e018301U, 0x3d95ec663bb29aeaU, 0xbe16f1c8be433dc9U, 0xbdb031cc3d137f0fU,
  0x3dbc016cbdaaafaeU, 0x3da05b03bca6eee4U, 0xbd918599bdaa7968U, 0x3d30075abdfb8790U,
  0xbe1dcb063d36ca1dU, 0xbe9d95ba3d849141U, 0x3dd32f18be4886b3U, 0x3d10b9e6bda75e45U,
  0xbd51e7453e0b7a37U, 0x3c1974273e23a96fU, 0xbdc08be03d33cf63U, 0x3e689d8a3d0371f8U,
  0x3e06cf613bad234cU, 0xbd2c7103bca56c4cU, 0x3c8ab41dbe0186d0U, 0xbcecede43de576bdU,
  0xbcb3e421bd9324b0U, 0xbddc2ababe26b423U, 0xbd9088f2bd8c1c39U, 0xbe6afc3abc0c9e6aU,
  0xbca7ffa4bdfdba56U, 0xbcde2271bdde5f95U, 0xbe43a9f53cf9784cU, 0xbe51cb0c3cb3dbdcU,
  0xbd6046493d6340bdU, 0xbe51ca65bddc6910U, 0xbde3a355bdb55e7eU, 0xbe7b1b15be2b409fU,
  0xbe19dcfdbc958686U, 0xbdfa3914be35b45aU, 0x3c6b13b8bd7b8837U, 0xbe6089c1bda4a8aaU,
  0x3b431d8ebdb2a649U, 0x3dc364d1bd9c6216U, 0xbd16b1c9bd4a4dbdU, 0xbdb952e13dcb1580U,
  0xbe0bcd393ce89971U, 0xbdf20f383de865c2U, 0xbbcd910bbc314fcaU, 0xbd8deacbbe2f7314U,
  0xbe40de25bdae5a44U, 0xbd85b21dbd03c97bU, 0xbe23f0ffbde71abfU, 0xbd5dc82abdf54d3dU,
  0xbe06aa25bd581228U, 0xbd0bd87ebc7acc46U, 0xbe7125b2bb99ac21U, 0xbe1b8a08bda52ffdU,
  0x3d8a783abdbe5a67U, 0x3e720b2fbd8cdbaeU, 0xbdfa9372bd45cee8U, 0x3d4d7f8dbcc764baU,
  0xbcfca9b33e1a348bU, 0xbdb760eb3e82714bU, 0xbd4685113db6d3c1U, 0x3deab34e3d10d57dU,
  0x3c1f8e313d861546U, 0x3db9f9fe3df5e1b9U, 0x3e11d3bcbd80adf0U, 0x3dec12c7bc6648fbU,
  0xbda5c66e3de3e1e5U, 0x3c1112df3df2b8caU, 0xbdca436dbdb55a0dU, 0xbcd240b73d438e46U,
  0x3dfa4572bd990c32U, 0x3d86cb58bde2c1e2U, 0xbb71b6e63ab01aa6U, 0xbc4f7146bd623289U,
  0xbdc236ab3e01795dU, 0xbe0eaecabd10c6c0U, 0x3dd495543d87d0e9U, 0x3d737bab3bf59079U,
  0xbdc48361be22e9ffU, 0xbdaf675bbd6352b9U, 0xbe5456b4bc1bbc6cU, 0xbcaf2ed8bce213deU,
  0xbe05ff4cbcbe5b9bU, 0x3d227301bd519b99U, 0x3db42747bdd9f36bU, 0xbd6ceafebe0a0251U,
  0x3c5cb4b1be1eaf77U, 0x3e18f8c2bd6dae42U, 0xbd2de34fbe405263U, 0xbd3d399dbdf2fddfU,
  0xbe855b323db2d0e8U, 0xbc6f4a243e218d41U, 0x3def8de7bd1ec31cU, 0x3dea3047bca15828U,
  0x3d6b30ea3d3b8361U, 0x3ddd59493e13f2d3U, 0x3cb8a334bd1800d1U, 0x3e2a05bfbd1e61e4U,
  0x3ddfd3a83d80e036U, 0x3d78ae573d59322dU, 0xbd885f0cbe306f2eU, 0x3dcb5bb83df65f7fU,
  0xbe022c063c00c8dfU, 0xbd734a2f3d14b1dcU, 0xbd81eabbbe85dca5U, 0x3c97be2ebe29703eU,
  0xbcbf54aebcc2a6b5U, 0x3deabf8d3e771011U, 0xbdacc76fbe714d5eU, 0xbcfe32883d324abaU,
  0x3dcdd55e3e238889U, 0xbd32be473d0af3a9U, 0x3e0d8eae3cb1d9dfU, 0x3d65ee293e022a48U,
  0x3d7bbe8c3d5ade48U, 0xbd9c20cc3bf47d7cU, 0xbdc90d763cb092b4U, 0xbd596db53dfb295dU,
  0x3dc018bd3c307d79U, 0x3df1143a3da9bbf8U, 0xbceb9cf4be167354U, 0xbc87766ebe3b8a1bU,
  0xbe06f1d23d542792U, 0xbd091f753daefb24U, 0x3e19b2453b819d9eU, 0x3d13dee33cb823b5U,
  0x3d0fbd753e038d9bU, 0x3e0364c83da98fbcU, 0x3dc9ca6d3d6847a8U, 0x3db52e733d94126aU,
  0xbabc4334bcb01348U, 0xbb9f1a38bc7cd1ebU, 0xbddc8a243cbc0fc2U, 0xbd2ae9d23dbd6e69U,
  0xbd12cafabdd7ffebU, 0x3cfdc75abd5b6386U, 0xbd992c35bde8bf08U, 0xbd9bac63bd8ef95fU,
  0xbdbab401bdef3fa5U, 0xbd8554d73e547c92U, 0x3d3bbe0fbd986978U, 0xbdc664dcbd41ba48U,
  0x3e232202bcd2fab5U, 0xbdbbfeaf3dbacf7cU, 0x3e0ae4113d48a943U, 0xbcdb4797bc14cddfU,
  0xbd1951f5bd1c56dcU, 0xbcf3e39bbe2131d3U, 0xbc1ed70e3e1350f0U, 0xbda44d353d182064U,
  0x3d5f69ca3d94d84dU, 0x3c0b4cfebd40127dU, 0x3d6d205ebdc29895U, 0x3d87efb2bd248a04U,
  0x3d3b36cbba0a56e7U, 0xbd91d7ec3bf19a21U, 0xbd524022bd50a6fcU, 0x3d23158dbba925c6U,
  0x3bd193b6be08aca2U, 0xbdaa5b0fbb3d37d6U, 0xbd050db6bdde371cU, 0x3df462383c66c740U,
  0xbe2a3fa43c568d03U, 0xbd168706bd58ccecU, 0xbd57bf0cbd74bc54U, 0xbd95a71dbe21f3b4U,
  0x3df78a1cbd67af24U, 0x3db67c7fbd2faa6bU, 0xbc875b9ebd8431f2U, 0x3d2949a2be164197U,
  0xbd5d3db33df06561U, 0xbdc29a023d49a397U, 0x3dc94c72be25d2baU, 0x3d8f9df3bdf5811cU,
  0xbde6a7d83d287a5bU, 0x3dc8a2ae3d567d48U, 0xbe29bbb5bc9e13fcU, 0x3e5bed803c256e5bU,
  0x3e25443f3cd4f640U, 0x3d4692dcbcead0afU, 0xbe3b87c5be3868e3U, 0xbcee46883e029d71U,
  0x3e5eb25dbca00b35U, 0x3dcffb04bcb24cdbU, 0x3b8c63c53db39771U, 0xbd8ea5f1bdf32f18U,
  0xbe5e46e23e0dd693U, 0xbdef5c813d08e35bU, 0x3e6be262be831280U, 0x3d4a46f5be407ce4U,
  0xbd86c6f13e867c09U, 0x3df10b643e570e77U, 0x3cee770d3da34004U, 0x3e65ec383d65e991U,
  0x3dc5baf5bd0169e1U, 0xbd847689bdd1a2ccU, 0xbe3c91f5bdcd212aU, 0xbcc3a8b43ddac8a5U,
  0x3d21f6e23c18ce39U, 0x3cdf6497bcd38fdbU, 0xbcdbb9c3be18d22bU, 0xbd93b088be23b6eaU,
  0xbd3c896d3d9bc4a8U, 0xbc0606c43e7fab37U, 0x3c87881ebd6f2966U, 0xbd2f113fbdfd519cU,
  0x3e08eb073e3e1784U, 0x3ca150ae3e21f5baU, 0x3d9aa12bbcbb582aU, 0x3d94224fbd1bc2fbU,
  0x3d783ed33d2e9bc3U, 0xbe05c49abd77ae88U, 0xbda486b73dbc9730U, 0xbdb6569a3db135b4U,
  0xbded135ebc938af6U, 0xbd9314023d3a6fa4U, 0xbd040e76bc9447e4U, 0xbde563c3bcf879ffU,
  0x3d3d29b43cc40715U, 0x3dc51ba1bd348696U, 0x3d5f62f0bc4de21cU, 0xba845a2ebc9a6dd0U,
  0xbb814b91bd88280dU, 0xbd60dbd7bd21f71bU, 0xbde495993caa6a25U, 0x3d2dadaabd9ac02cU,
  0xbc438ea8bdd3cbc9U, 0xbd0edc37bd746d55U, 0x3d1a58803d871367U, 0xbd69698cbe3f51b0U,
  0xbd470bb43cab5860U, 0xbdbd34113e16d779U, 0xbc8dbb04be8a48a3U, 0xbc175990bcb3c151U,
  0x3c51ce76be3e5a95U, 0x3e774ed4beadfbfeU, 0xbe0ac1b73e6fdef6U, 0xbd9e35713daad6c2U,
  0xbdb9449fbe006946U, 0xbd0587ea3cb310dcU, 0xbde3ce04bddb5323U, 0x3c4c52353cc67b4fU,
  0xbc48f907bccd7b2dU, 0xbc952702bd3cd506U, 0x3c9d9cd03e38e3d5U, 0xbdcee210beb62a85U,
  0xbcb3f9ca3d7202caU, 0xbd1713883d65d7a5U, 0xbd59f149be813154U, 0xbc0421e5be433720U,
  0xbdcfa01b3cc55a9aU, 0xbdf5f568bbe14969U, 0xbe835f463e63b775U, 0x3c70869b3d908693U,
  0xbe3f322bbd70c76fU, 0xbdaf3251bd042b6fU, 0xbe8023d1be1aae28U, 0x3c7ecbb13c32bd72U,
  0xbdda65753c537aceU, 0xbd591615bc7101d8U, 0xbc0f1da03cd5c185U, 0xbcad2427be7c7d79U,
  0xbce109793da235cdU, 0x3ceec5e73b97b8b0U, 0x3d8715c6bde99eddU, 0x3c9042c8bdb2d1bbU,
  0x3d40f88fbdafe8f8U, 0x3e284334bd8a5163U, 0xbd4706d33de97407U, 0xbd355e923dce04f7U,
  0x3d95d0d63d9a08c3U, 0x3d3cb6303d74f854U, 0xbba52cd8bce1db69U, 0xbcbe485cbcbe9af4U,
  0x3d3a58e2bdbfb2c3U, 0xbd880e01bc5977e7U, 0xbd98c4313e0a81c3U, 0x3cb4c291be3df1fdU,
  0xbe36b3eb3d6dd97fU, 0xbe6d34823cbce72dU, 0x3d0f48aabe0a25ccU, 0x3ca79d3d3a898b99U,
  0x3e72c28fbdab0321U, 0x3e5619a7bcab3f74U, 0xbe66d2113e507e9bU, 0x3bb9f1173e0a24eaU,
  0x3e4953b4bceab9beU, 0xbbdc58a43ba16160U, 0x3dabebd1bd9d5e3eU, 0xbd1a7fa73cb526f5U,
  0xbd4e8aff3cfa89f7U, 0xbbdcb9693bd80a60U, 0xbb9061e53e3827d9U, 0x3d1f1ecebbe0852dU,
  0xbe28dc6b3dbdfae0U, 0xbc97a1143d8c0662U, 0x3d4c567fbe90d657U, 0xbd99a12ebd07a7efU,
  0x3e4f4ef4bcee7d8eU, 0x3e18c841bd79e4c1U, 0xbe93f17d3e28d1bdU, 0x3d32a5063d6a2160U,
  0x3e647ee43da5e8f1U, 0xbcc15f203c8ae62dU, 0x3d9cf16cbdbe19a3U, 0x3dab461a3d8e1bbfU,
  0xbdd1dbeb3cc5bd80U, 0x3dea28433be58561U, 0x3c3fe3f23e91fedfU, 0x3e1f33b3bd035ca6U,
  0x3de10906bd951f91U, 0x3d8869253d4a39adU, 0x3d7c6dc83db0c3e1U, 0xbdf61184bd2a726bU,
  0x3bc074e93d77783bU, 0x3db930413ca292f6U, 0x3cdccb653db002e5U, 0xbd51143e3d30a190U,
  0xbddd5460bd2b63abU, 0x3d9b2e0b3d4fd1f4U, 0x3d310d51bd0898cdU, 0x3df944ba3cfad1d2U,
  0x3d1a74df3d9644f9U, 0x3d06d3d73da49a70U, 0x3c90d788bc49782bU, 0xbd8844a53d3b00f2U,
  0x3e0b1f53bd9da737U, 0x3cf4dd163b4753a2U, 0x3d908a383c4464cdU, 0x3dc13ab53dddead8U,
  0xbdbfada63c57080aU, 0xbd365a9c3db02c66U, 0x3e0c66e6bc5a9cefU, 0x3ca0c079bda0dc50U,
  0xbe050554bd2bc5c3U, 0x3d8b98073c349256U, 0xbd3442913c033b1eU, 0xba0cffd43d676ed6U,
  0x3d9325423d8b222eU, 0x3d1400a1bbb5b0d9U, 0xbe02bbb3bdd33782U, 0xbd8128a03dca5daaU,
  0x3e16e6cc3bf70c81U, 0x3d7b39d6bba9c35aU, 0x3d97543dbd2f133cU, 0x3e11ab68bdd86db7U,
  0xbd0e1f0a3e2f4bebU, 0xbe3775533e6053ebU, 0x3d7fa962be304c58U, 0x3e1ae0e8be463cc9U,
  0xbdcf6438bc32ef6fU, 0x3ac7d31abca0ec5bU, 0xbe1c7d513d81d827U, 0x3d9a2b183d84f3f6U,
  0x3d11206c3dbce657U, 0x3d91159e3cebb8bdU, 0xbe260620bdb62603U, 0x3d2d9adc3d262169U,
  0x3ba9412c3d08c6bbU, 0xbe614ea8bd0449e5U, 0x3dd16d95bd39707bU, 0xbde5adf33d3282f9U,
  0x3e40b159bcc54f2cU, 0x3e3b61a13c831cb3U, 0x3dcc309bbe01ee06U, 0xbd9bc4a63d7cd22cU,
  0xbbbfaab13a28c99fU, 0xbdd057e3be39f617U, 0x3db341583d0b0d07U, 0xbcebde473cf6213fU,
  0xbd4fb0ccba9fe7c2U, 0xbd7b48f5bcc96e81U, 0x3dccc1d43dfc5bbeU, 0xbc0def2c3ac088dcU,
  0x3e22ffef3d27b8f7U, 0x3b2053a8bc0b133eU, 0x3e26f1213dab9d64U, 0xb9ef0ca73cdddb49U,
  0x3d62bb963b8ae4d9U, 0x3d39dbb2bb240e42U, 0x3dd632a6bd40c7abU, 0x3d8f50f23d63d398U,
  0xbe15ec493bccf561U, 0x3d85a26cbc6c5962U, 0xbdc2fc113d25d2d6U, 0xbbab2f773cc9a61bU,
  0xbd82da5d3d060752U, 0x3d53e3dcbc9c8b72U, 0x3d3baed93d0c297cU, 0xbdaeedf9be04ee4fU,
  0x3e423847bd80a98aU, 0x3c97e431bdf99047U, 0xbd4aa8ffbb0513b9U, 0x3d36e306bd8773c1U,
  0xbc8ad9403c0d5475U, 0x3d92b5d73def7b57U, 0x3e0f5392be87839dU, 0x3de41004be330074U,
  0x3de0535d3df15931U, 0x3e0321a93e77a2c6U, 0x3daefcb4bc91b36dU, 0x3e6271233ce6876bU,
  0x3e28b4593ca14c3bU, 0x3d95ba9a3d9f1aabU, 0xbe1b9ee7bd11b207U, 0x3d0baf963ced5159U,
  0xbe1f8e71bd58106cU, 0xbed61205bdaced38U, 0x3cd36a6ebcc32abeU, 0xbe3e587b3de1f44aU,
  0x3d9a9c3fbe81257fU, 0x3e88c53a3d230598U, 0xbe15a5be3c6ee38dU, 0xbe817043bd4b92f2U,
  0x3e34feb9bd99ed03U, 0xbe59a619bd995759U, 0x3dbe4795be684f09U, 0xbe246bc2be1d24fcU,
  0xbeaa093ebe7fe8cdU, 0xbdb05e3dbe86c858U, 0xbe7b7e3c3e2588aeU, 0xbe0f6c4a3de24b80U,
  0xbe5e0b72bdb7a1ebU, 0xbe88ff8cbdd34e7fU, 0xbe52fc3ebe8f6a1aU, 0xbdce50b1be052b19U,
  0x3c54e620be9f6ab9U, 0x3e65fe5b3e61eb13U, 0xbe8f01eabcff192dU, 0xbe2637c8bd09ded7U,
  0x3e7b41163d4745c2U, 0xbd429b393dd2f3feU, 0x3e421cfbbdd897a5U, 0xbdcbd0133d5b9862U,
  0xbd4345b5be44429fU, 0xbdfd715bbdbc79e0U, 0xbe80e92d3e8168f4U, 0xbd5777733e03fa1bU,
  0xbde77bc9bea36d3bU, 0x3d7319a4be24c448U, 0xbea94d7dbd92331bU, 0xbe5dcf14be891179U,
  0xbe48c215bda27aa8U, 0xbcf1c46b3e911a47U, 0xbe4bf906be3fd9ffU, 0xbe54febabe9e3311U,
  0xbd2e6c513e30c20cU, 0xbd36d1d83c24088aU, 0x3da01709be160368U, 0xbd9bdb80be11bd11U,
  0x3d2fb7b6be4b9d72U, 0xbe995308be64c0c8U, 0xbe5bc0e23db6cd5aU, 0xbe9b0fbb3e65aadbU,
  0x3dc3eab5bdcb0554U, 0x3ab37acd3d36f65bU, 0x3e1be9733a907f4fU, 0x3cd4b41d3da1db80U,
  0xbccb457db96c62abU, 0xbcb78e963d6bbbd1U, 0x3d02b51ebe294813U, 0xbd6fcb52be5851a8U,
  0xbdecd7e23d4f739bU, 0x3d6698ca3dde24eaU, 0xbd73d0a1bc1094a3U, 0x3ddfded1bd08a1c7U,
  0x3dbb205c3cb597ceU, 0x3cf3214abc272b3cU, 0xbce17bb53bbe5cb4U, 0xbd596505b9a811edU,
  0x3d95a935bcdb5682U, 0x3d50b65f3d6e677eU, 0x3d0b7ee1bd2cb700U, 0xbd8021dd3d091375U,
  0xbd3b5999bd6090c6U, 0xbd0222cf3e5307caU, 0xbd862371bdb70772U, 0xbda2a8d3bda5945aU,
  0x3b14512a3d90fed7U, 0x3da411123ccda832U, 0xbe158e3fbd88a268U, 0x3dc6afcebdd04ccdU,
  0x3c463828bd5366e5U, 0x3cef3baebde2509bU, 0xbd0c65003daf9635U, 0x3d6033563c3c207aU,
  0x3d8431d93d27988bU, 0x3db7e6223dd8a9b9U, 0x3cda5a0c3ca8894eU, 0x3dad3d37bd90a2f0U,
  0xbdedeb323da95274U, 0xbe40afeb3e119689U, 0x3cd6f9173e1bdcabU, 0x3dcd30903d6e66acU,
  0xbe5316efbdd7b341U, 0xbcb5297bbdbe97f8U, 0xbe35b16c3d57f3bfU, 0x3d606151bd6c9fa8U,
  0xbe1055183df2be65U, 0x3dac2dcb3d54de79U, 0xbd91aa2abd81c112U, 0xbbe1f59cbe3125aaU,
  0xbe2a88f9bce3951eU, 0xbdb94260b9ea433dU, 0x3d7eab7bbe0e1d57U, 0xbd880920bdc763a5U,
  0xbd4412d7be26e1ccU, 0x3e184ec5be3810d3U, 0xbd53d801bd5ccea0U, 0xbc1687b03d495045U,
  0xbd0c2809bdd30678U, 0x3c062f9e3c9659dcU, 0xbd8098fb3d85d54fU, 0x3cf5891abd282064U,
  0xbd22703a3cccd86dU, 0x3da561fb3bc799d7U, 0x3dbaceb93d745bbdU, 0xbd1f4a0fbe726f99U,
  0x3d91f31c3d98ae07U, 0x3d4365e23d14d129U, 0x3dd7a71cbcd42a9cU, 0x3db0a7fd3dc3975dU,
  0x3cf3bdb8bca685f2U, 0x3d0c5265bcb8120dU, 0xbcb749e33dc4ce5cU, 0xbb64cb293d171798U,
  0xbda501d7bd94e461U, 0xbc6bb06bbc576b30U, 0xbd8e26453d8d2338U, 0x3acb02e63d160168U,
  0x3d774f1d3d6576e3U, 0x3c7ba2d73d2bf7abU, 0xbceb00923dd62228U, 0x3be0009fbd9e0148U,
  0x3cdd646ebd069636U, 0xbc5fb3973c7cd5cfU, 0xbd811eb7be516f5fU, 0x3dc090823d913e7fU,
  0x3d30bce7bb26511eU, 0x3ddf2b6c3d16a439U, 0xbd3619c4bded61ebU, 0x3d903c52bd6389d4U,
  0x3cecdd373df24adaU, 0x3d97fbc33c8bc7e6U, 0x3ced31153e015fb4U, 0x3e28cbfc3d2916bdU,
  0xbd3711e23aa246bdU, 0x3d3cd5073d8ae96fU, 0xbd3d9a183dcb6540U, 0x3b9dc2ad3ce7a7c9U,
  0xbe1fc8ef3d76fcdcU, 0xbe645599be02a5b3U, 0xbbb85659bd8322caU, 0xbdf55d553d296dd2U,
  0x3e8004dfbe06dc93U, 0x3e34d09ebc8b9f59U, 0xbdbd9f7fbe03e667U, 0xbde79eb83dc64396U,
  0x3dd1d7b63d54f595U, 0xbe4409e2bd478307U, 0x3dc6518abe109886U, 0xbe1ed4ac3d280125U,
  0xbd2f9524bde1abe5U, 0xba82f947be5c0215U, 0x3dbaaf813e821716U, 0x3d7d7ab93d1a83e3U,
  0xbd7b7fafbdb13271U, 0xbd4e6e4bbe067439U, 0xbdbfce01bd8b3e6cU, 0xbdc3b35abd1fee11U,
  0x3e314c5bbe509e53U, 0x3daf9bac3e36f33bU, 0xbe42fa243e43af76U, 0xbd9202f23cc93ab2U,
  0x3dc64ea73d7f37aeU, 0xbe034eab3d9b4d12U, 0x3d531729bdb9263dU, 0xbd9feded3d0cf48dU,
  0x394d6e3cbbbe7db4U, 0xbdd7b28bbe07ae27U, 0x3cf018783dea7280U, 0x3d349bdd3caec0f1U,
  0xbe1ddfaebd50f87dU, 0xbd6894a8bdeb71acU, 0xbe595da6bd5ff8a2U, 0x3b6fec59bdaf4edfU,
  0xbd3f477fbe2ab542U, 0x3e4089803e4480e8U, 0xbe4d72c1be0163a4U, 0xbdc80f6abd91b1c2U,
  0x3e2a28993e14e4acU, 0x3d47273f3e42bb4cU, 0x3df71879bdc33f66U, 0xbc5ff33f3d4dd72eU,
  0xbb157bedbdfc0438U, 0xbd2c5cf8bde97573U, 0xbe43cd4f3d3e62ecU, 0x3c65d0fc3e27c4f1U,
  0x3e1205a63ddc7b8aU, 0xbcd4f3bebd38c2b7U, 0x3e8a13953d96a78dU, 0xbd47f3343db9a8ffU,
  0x3d6b20723d81440dU, 0x3ce8500abde17648U, 0x3e195c69be219833U, 0xbc41d8f4be661e55U,
  0x3d462e553ca59420U, 0xbdf93a62be176532U, 0xbdd538843d8b5b30U, 0xbc534ebe3e38a46fU,
  0xbc0eedf0bd97223cU, 0xbd378bd7bd932731U, 0x3d50d3dd3d9e11e7U, 0xbd4a8568bb47e351U,
  0x3dbf43283be6876bU, 0x3d8cbc573cb1d560U, 0x3d78e2313d8b937eU, 0x39d1321f3dcb7b0bU,
  0x3d886ee5bd1b66d2U, 0xbddeaafbbe50d7dbU, 0x3e11fa85be92f74dU, 0xbd9d7c4cbdb479a6U,
  0xbe50474abe978eb6U, 0xbd9edc97be3235aeU, 0xbec33a0a3d71d1f9U, 0xbe15993d3cbd703aU,
  0x3ce62e5c3ceee236U, 0x3d90e86fbd7a0d07U, 0xbde7208dbde937a4U, 0x3d54b01dbebf35c4U,
  0x3dd25c57ba1652fdU, 0x3d82dfd1bd2758b0U, 0x3d5bfd6c3e177f9dU, 0xbc9537f6bdd0a244U,
  0xbe12b4bf3c99ce05U, 0xbd0cc285be917dd0U, 0x3e1b70c7be3b8fe7U, 0xbda6b0163aab4b77U,
  0xbe7cc4f43e1086b0U, 0x3da8914a3ddf04b5U, 0xbe3e45103e01fecfU, 0xbca4c8d83ca7b726U,
  0x3dc93acbbdab54e5U, 0x3d82e6573c02f15bU, 0x3dd0e632be872694U, 0x3c1f0948bde23e44U,
  0xbd457c853d6c0e11U, 0xbd6438f2bd62eccbU, 0x3e4f5a713dcc95c4U, 0xbd2da3953e360304U,
  0x3e36e3cabd8969e5U, 0x3e32af55be4cbad6U, 0x3d6f82b9bd8f6d3bU, 0xbdbba85bbe008682U,
  0xbd80111fbe2692f1U, 0xbe8b9110be1b4968U, 0x3bfc35c7be0b54acU, 0xbdcc32043dd6af13U,
  0xbe1f36afbe1f8affU, 0xbd36edf5bde6c79eU, 0x3dedff833dd139f3U, 0xbdc13b7dbd0ec3b7U,
  0xbc1821023dcc05bcU, 0xbd0abc1f3cede710U, 0x3e1a57bd3c965817U, 0xbcd981543e4503e9U,
  0x3dfa79a23c61721eU, 0x3ceb4b39beb71fb0U, 0xbd4b4b61be8c78c7U, 0xbd28313dbc098038U,
  0xbe8c1b08be60b311U, 0xbdedeaf9bdcfcacdU, 0xbe9beae1bd5a773aU, 0xbe3288923db295e4U,
  0xbe12e2b63d1a3a13U, 0xbcc9f8d9bd84902aU, 0x3bb47f1d3e005ef3U, 0x3dfb5ce9beb3613dU,
  0xbdc7b9b2bced9dd8U, 0xbe1c386e3e20d9c5U, 0x3b15f9c43e147dabU, 0x3d1a8cde3e0bbe5aU,
  0x3e092545be242328U, 0x3d8821cebf0c29ebU, 0x3dd36fda3d8e4848U, 0x3b9d291e3deda013U,
  0xbe9e6dfcbe0fad83U, 0xbab9100ebc0495b6U, 0xbeadf8ff3d6b39f9U, 0xbd8ef4e63c6de1caU,
  0x3e1584bbbcc309f1U, 0x3c9ac716bc2c67edU, 0x3e3b54e4ba834223U, 0x3de89f1cbf1d192cU,
  0xbd87c24cbd8265a1U, 0x3cd3c6ecbdf1a7abU, 0xbd61701dbcfb29d3U, 0xbd90c7803c92d3c4U,
  0x3dcac738bd8422abU, 0x3dc6f3cbbe5881a6U, 0xbe7998523e3db3bfU, 0xbcc9dd4d3cc38264U,
  0x3d285e29bd8f1d6fU, 0xbe1d4650be558a89U, 0x3e382de4bdd73352U, 0x3d30805338a1228eU,
  0xbe35badbbdb33466U, 0xbc659154bd8e0e8dU, 0x3ea34fdc3e2a1f58U, 0xbd7c5a0a3d0e8396U,
  0xbc5cec803dbe4b4fU, 0xbe13ddb33d474705U, 0x3e16a98c3d567388U, 0xbc56f86f3dc6071dU,
  0x3dffc3e2bd747231U, 0x3e22b18fbeb3382bU, 0x3d88254cbdf522e1U, 0xbcce06e5bd8da594U,
  0xbd819dfcbe868291U, 0xbe71db5cbdd50e43U, 0xbd90bae539480702U, 0xbd454ef73dd057a5U,
  0xbe59f2363daa0d3bU, 0x3d877328bc84ee39U, 0x3d1ef5743d3ea5bcU, 0x3c86529bbea33249U,
  0x3d9dcdd53dcd3d8aU, 0xbe1937973dc865a1U, 0x3e9357223e39974bU, 0x3dd378b33e5b4c39U,
  0x3e25f7f33c73f66aU, 0x3de8779dbf1c2a41U, 0x3e22efde3deafa13U, 0xbbceaaa63e7ca206U,
  0xbd3b8e29bd975234U, 0x3c68289bbd9ac3d9U, 0xbe4fab60bbf52598U, 0xbe0b05b63a5f73dbU,
  0x3d1a1d6f3e1279feU, 0xbcd791853d5152a1U, 0x3df4e847bcc84c67U, 0x3d9d6019bebfdb00U,
  0x3cad82da3d9fff10U, 0x3cbcdf3abd24b064U, 0x3e26401d3e0a9f25U, 0xbd9981323e30264fU,
  0x3d892c85bd441c68U, 0x3e35cbdc3dac290cU, 0x3e0c4702bd5fef32U, 0xbda36f2e3ddfbce0U,
  0x3dbe17553d8dbb67U, 0xbe0f9f62be084f22U, 0x3df2ec6bbce19285U, 0xbdedda6e3dd39274U,
  0xbdf21f15bda32435U, 0x3d1aeb3bbd49bec0U, 0x3ce116023e1e64c2U, 0x3dd4e6b83e4ebd1eU,
  0x3e0e85233da20eefU, 0x3dffc80ebd185391U, 0xbb5574773e3b3c21U, 0xbd7231003dfee35bU,
  0xbcdf6bac3b7cc3cdU, 0x3d1c7c313df9e8d5U, 0x3db1cc733ce19f3cU, 0x3cec1764bd8719e4U,
  0x3b7555cd3c84f857U, 0xbcf77e253d05c1d0U, 0x3d1821febd7319f5U, 0x3d6f8ab6bd0f3ea2U,
  0xbd50ea933da6b879U, 0x3c815a04bcbe8642U, 0x3c16a9fcbd0153faU, 0xbcc413ae3e19e2cbU,
  0x3e347780bd4593b1U, 0x3e42ddc9bd9aaee6U, 0xbe15db943d34c2d8U, 0xbc14c013be0305afU,
  0xbe601a643dee5366U, 0xbd8c0e793e21e9caU, 0x3e04460abe1f5318U, 0x3d9dcfafbe686396U,
  0xbdb8d1f73e66d1d6U, 0x3e61bd623e081b0aU, 0x3d005752bc97bde1U, 0x3e0058ee3d73e915U,
  0x3e380facbd926cd4U, 0xbd7a68cbbcffc209U, 0x3d45d52dbdca8c95U, 0xb8299bcc3dfd5353U,
  0x3d9e4e4f3d5998e4U, 0xbe3284f3be005d9cU, 0x3e8f9b943e97cc81U, 0x3c82d7c53e9b9d3bU,
  0x3e1fcbfcbc245938U, 0x3dcf8ec7bdce1958U, 0x3e8ad5fcbea5e5f9U, 0xbd9d0b59be1b08a9U,
  0xbd6ea2b6be42a449U, 0xbe2542babda75fa8U, 0xbd9b4235be0dc616U, 0xbe01841dbc7a5f4cU,
  0xbeb4d0f1bdf7a8d3U, 0xbdb6c377be3b50fdU, 0xbddacbf43dd5dbd8U, 0xbd809f49be0dddedU,
  0x3ce2d4d1bd8e69adU, 0xbe2466e7bc6f196fU, 0x3e4b00f63d47dc1bU, 0xbd7ee7693db00a41U,
  0x3d37d000bd96648cU, 0xbc9661f63da5fde8U, 0x3dab30b8be0c3413U, 0x3dc1b9edbe2ae379U,
  0x3c9689793ab08fd0U, 0x3c7cec403daf9786U, 0x3de7aba5bd341746U, 0x3d5a04623d145c4dU,
  0xbd16fd58bdbb761aU, 0xbd4678563c5196dfU, 0xbd6a2d953de07108U, 0xbd2a5c723e31333cU,
  0xbdafce05be3e4453U, 0xbe10586bbc0b1ca6U, 0xbe897d01bdaf4bf3U, 0xbd90e724be768ff8U,
  0xbe789eddbe45e2d3U, 0xbe0d9a1d3e3c7efaU, 0xbe366a62be8983a7U, 0xbd057559be7b8694U,
  0xbdf74cc63d2161cbU, 0x3e072947bdd97c9aU, 0xbc66a0c7bacaff6cU, 0xbdbdf3eabdb4d8a2U,
  0x3e3abef6be9c578dU, 0xbe6dd7c1be3cc9a1U, 0x3c11d4c1be07f4f4U, 0xbe6a898e3d91163aU,
  0xbe94f89cbe7549afU, 0xbe60b1c0be8fc118U, 0x3cf1dcfcbd282266U, 0xbe0312a43d849598U,
  0xbe1972b4be8bbd56U, 0x3d583db7bd7a2354U, 0xbe09bda8be10a3f2U, 0xbe6d5813be6abbb0U,
  0xbe20489cbc90a96fU, 0xbe2e3497bd56a47aU, 0x3d59e98ebe7cdea5U, 0xbddcfba8be796287U,
  0xbe6f6f4abeab06d8U, 0xbe84dfdabeb3dcb7U, 0xbec9acc8bd405131U, 0xbe13e123bd3bd430U,
  0xbd5dea9fbe2d2a91U, 0x3d192308be1c9365U, 0xbe6c9e4abce07e3eU, 0xbe69d250bd7259e3U,
  0xbd9de5abbd8697a7U, 0x3c2eed823e70dfa8U, 0xbe71d7763df0d8bfU, 0xbea0c0bcbe46979cU,
  0x3e41534f3e08ee69U, 0xbdf11ddcbd8354c4U, 0x3e0bbe9cbde43debU, 0xbe37ea81be34a1feU,
  0xbd9f4d23be47db9cU, 0xbe9c1daebe89a6dbU, 0xbeb5078c3c5730deU, 0xbe969cc13ea4d390U,
  0x3d444025be3a0d05U, 0x3e7bb124bdac35daU, 0xbe02b4f0bd9e4ad8U, 0xbe260f19bd220b9aU,
  0xbe3161913dfd446aU, 0xbee14b273e86bea6U, 0x3d89beec3d81bdedU, 0xbdacd167be01b283U,
  0xbe08529cbe83beb7U, 0xbe9ba6debea22f3aU, 0xba76fdcfbe88e83eU, 0x3d662bbcbe76550eU,
  0xbec8fcf83cf95695U, 0xbda3a309bd51c7d1U, 0xbdcf8fafbe8d0d35U, 0xbe48a5713e29cb7eU,
  0x3ddd2f17be558582U, 0x3e80d3abbc880c66U, 0x3dac64593c86eaa4U, 0xbc31773fbda8f13aU,
  0xbe6bf19e3db1f9deU, 0x3cef793d3e15b729U, 0x3d9f5fb9be03503cU, 0x3d9b6ca9be235c91U,
  0x3da108a73d60b77dU, 0x3c6d53323e497b1cU, 0x3e0c58e7bd91e7d4U, 0x3e793133bd058bdbU,
  0x3d2036e5bdc74256U, 0xbdfdf2343ce749dfU, 0xbdc303e73c574e78U, 0xbd94e12e3e20d3edU,
  0x3db0631cbda2bfccU, 0xbc498fe03bdeca0dU, 0x3d0d6528bd94f31cU, 0xbe0e9279bd87782dU,
  0xbd077df63d802ca6U, 0x3d6e996f3e0052c2U, 0xbdcb6f88bd0507b9U, 0xbd276414bd2965b7U,
  0x3e53429e3ddd3324U, 0x3dc7dff33d412745U, 0x3da33f463d40f7a9U, 0xbdbaf9143dcf7424U,
  0x3b2449a0bd8f64a6U, 0xbd564918be2de0f1U, 0xbdf7e7473e46766cU, 0xbd69f0393ce3cc09U,
  0x3d997318be2b5d0aU, 0x3d94164abd60cda2U, 0xbd5e01d6bd836918U, 0xbd390e1b3caaf38cU,
  0x3ccbad133dc2c77dU, 0xbce94cd93ca1a8f2U, 0xbda8ea253e2f02b6U, 0xbde17f5cbd858ff0U,
  0xbdf14a91bd7a75abU, 0xbde5856bbd929835U, 0xbc00f841bd9b06e1U, 0xbd6a2450bdda7367U,
  0xbd99b5ef3d0fdd87U, 0xbe0c505c3cc15725U, 0x3de928133bc7d693U, 0xbcec7197bdb7f576U,
  0xbe56320cbd9a1449U, 0xbcf2ab38bd5492c1U, 0xbe2fd36ebe79c316U, 0x3c9b259cbe117af3U,
  0xbc99e179be1543c3U, 0xbc823005bdc4e6b4U, 0xbe2b3b3d3e249d90U, 0xbc60efd73d6ec4abU,
  0xbd9943e1bc3b9dffU, 0xbd9df479bd90f931U, 0xbd8176a3bd89599eU, 0xbdf05101bdb05779U,
  0x3c46ecebbd14c255U, 0xbd64c8803bff5f80U, 0x3d8f856b3e28a302U, 0xbcf92b61beb3a9a8U,
  0x3cd8f45c3c8fc8aaU, 0x3da5d04ebc568dbbU, 0x3d10ed5bbe3ac953U, 0x3c9351abbe439bf6U,
  0xbe073e223e3a83abU, 0x3de2b2c93c151c62U, 0xbd2d764c3e1fc2c7U, 0x3e12ef38bb29fb02U,
  0x3cac99ffbd5d0d19U, 0xbd67d20c3d5e1ea8U, 0x3d08a4b2bc3dfffcU, 0x3dead4583d9ae185U,
  0xbde2032d3dae552cU, 0x3b22b5253a356914U, 0xbd9434ad3de7def7U, 0x3cafce673be85b35U,
  0xbc12ae913d84985fU, 0x3da224583d89b09fU, 0xbe365b77bea371afU, 0x3c2a4b5fbdf8198aU,
  0xbdc255273e0e508cU, 0xbdf893893e234e51U, 0xbdfdd98a3df92188U, 0x3cd9048f3d34b91dU,
  0x3cbf4321bc98c715U, 0xbdaa7b113cea9eefU, 0xbbca44a43d98aa93U, 0x3c79a3d23d29b24dU,
  0xbd1542f73dd758baU, 0x3c8f09973e191d09U, 0x3d8e759e3c9cb886U, 0xbd3411df3da58948U,
  0xbdac26a93cded09dU, 0xbdf413b53cfb8014U, 0x3b1d66d9be60437fU, 0x3da4be19bdb68ba1U,
  0x3d798c54be042e4aU, 0x3e2e73bebe3ae448U, 0xbd651f843e610822U, 0xbcbe0371bc5aef71U,
  0x3e1351bbbcf15a07U, 0xbc0d72de3d1cf666U, 0x3d8481e03cb76514U, 0x3df197c7bc66d169U,
  0xbdc910ebbc5de097U, 0x3d9a99c93d9a637cU, 0xbb1129063e806dc8U, 0x3d940c8cbe056898U,
  0xbe0b24973d20b9d8U, 0xbda347cdbca468e1U, 0xbe8a42e4be920bdaU, 0x3d826b34be999f55U,
  0xbdbd4e7abd8ab414U, 0xbc28daa83d69d40fU, 0xbe440f453db57169U, 0x3d0d52fb3dd3b972U,
  0x3d90ef853cc8520dU, 0xbb96f891bcc160e5U, 0xbd52edb73dfa0b4dU, 0x3dee999f3da419d1U,
  0x3d46a46f3c33214dU, 0x3d7da7583dd41810U, 0xbd8138053e075ba6U, 0x3dab1b43bc74323dU,
  0xbd822f143e1df96aU, 0x3d6393743dbd822aU, 0xbdf44e3cbe85ea68U, 0x3bbc5946be5c5c45U,
  0x3c6b00013d8c0bedU, 0x3d4c7bc4bdb1858aU, 0xbd9ae44f3cfb23fbU, 0x3b2a12e33db43518U,
  0x3dc76e46bbe9ad3fU, 0xbd27ab7d3db94fa0U, 0x3daf0a4d3d1ee39eU, 0xbc9a42c43d6aa02bU,
  0x3c5ce2993d28c6b5U, 0x3e2588453a7bcd48U, 0xbd2ba4973d048b44U, 0x3e018789be0ae426U,
  0x3d897f723e048847U, 0x3d75918a3e5ef9e9U, 0x3da375483d945518U, 0x3d9c55b83df8cc1eU,
  0x3d8bc4063db3e620U, 0xbd01b2cd3afcd9d9U, 0x3d3d4e9e3b9022b1U, 0x3dfaa54f3d9bf805U,
  0xbe3fd13abd659665U, 0x3d46e4fb3d3cce09U, 0xbe57d06c3dd5b794U, 0x3cc8b6283dc85da8U,
  0x3e0ebc6e3dd738beU, 0x3d9698ea3e0299a9U, 0x3e5517b93cb55553U, 0x3e14186cbe637e15U,
  0xbe9c5af2bb1d1ff2U, 0xbe3d27c2bd1779dcU, 0xbe0864953d690fe3U, 0x3d2b512d3ce95977U,
  0xbd9005c8be63783cU, 0xbea183f3be7afd52U, 0xbd8e9f523cff1dceU, 0xbd62c3b23e2b797cU,
  0xbd1e6a2bbdb4aa13U, 0x3a3375b83ca9e06bU, 0xbe0b82ed3d55399aU, 0x3cbf2ae3be32ef93U,
  0xbcac55a1bc3eac72U, 0x3d0a2e69bce63ba9U, 0x3dbb98e2be56c3f6U, 0xbca9e0e3bda02689U,
  0xbe260ae3be29e38fU, 0xbd3caed4be4eb21fU, 0x3c9e72973d0f8201U, 0xbe5dbb663d6cab71U,
  0xbe88871ebdd5905bU, 0xbeba809ebe3fffb4U, 0x3c2569993b575d09U, 0xbe036f9bbda090c7U,
  0xbd9ad3c8be44caefU, 0xbe0f3115be74e2d3U, 0xbe05a6d8bdf33788U, 0xbe79bf08be6ab5e4U,
  0xbd61aa2ebe724674U, 0xbdd79c7bbdda1085U, 0x3ddfcb6cbeacd0b8U, 0xbe5062b7bd96a7e2U,
  0x3ddab4163da545f2U, 0xbd3ab6703cdd5889U, 0x3ddb0d4e3e3ad21fU, 0x3e3be1603d93a401U,
  0x3daf421a3d882c39U, 0xbe647888bdc17b36U, 0x3e72670cbe2abe6dU, 0x3e23619ebd6c6b2fU,
  0xbe0a2e1b3c8fec83U, 0x3e1f230d3e2e2235U, 0xbebbe1823cd29773U, 0x3ddcede7bc4d5212U,
  0x3dd94a7d3da4312eU, 0xbbb400383d89537fU, 0x3db831b2be8a4dd0U, 0x3daf0053be086de0U,
  0xbe0de53abe026bb0U, 0xbd8314203d17400bU, 0xbe883c7bbdaa953dU, 0xbc987501bd3f7b6bU,
  0xbe11e53dbe4b07efU, 0xbeac9783bdbf6b73U, 0x3dafbb37bd382f2aU, 0xbda011533d4f9f68U,
  0xbdb53b8e3d4f68d8U, 0x3d9ee16c3bcf1bffU, 0xbdfe72db3c3b9d50U, 0xbc93985ebe4bd6efU,
  0x3d2b12fdbe0d5710U, 0x3d0e3b5d3bcc85a9U, 0x3c9e16acbe964a6aU, 0xbd49ccfebceb1e4bU,
  0xbc89c9f7be01dbfcU, 0xbcc3dd6dbe2ed064U, 0xbca897fd3dd8f8a8U, 0xbe01b2823d411a44U,
  0xbcf648d03b562bc8U, 0xbe019d4cbd6d0fc5U, 0x3de960c53b16a587U, 0xbe0b4f67bde8f056U,
  0xbe55eb28bdac2fbbU, 0xbe23b302be92d2e3U, 0xbdbdc8fbbd8f64a8U, 0xbd96d4f0bdee9729U,
  0xbbbd5fcebe1a071dU, 0x3c729233bd8ffee6U, 0xbc3e54fcbe129a76U, 0xbe33d428bd36dbcaU,
  0x3d909b1cbdcd1340U, 0x3da725bb3d5d157eU, 0x3d0922e83dc48ba7U, 0x3dbfe67b3dee1244U,
  0xbdb5b4923e2712d0U, 0xbe438d973d214e74U, 0x3deb2706be90e04fU, 0x3d082b73bdf16f18U,
  0xbde7b2e13cf59198U, 0x3e299f233ddc74ecU, 0xbdbeb6413db4afb5U, 0x3de57f2abdae6e5fU,
  0x3e2ae30b3b932a7bU, 0x3d7b2142bb5b3286U, 0x3c8efcd9be2d3ff3U, 0x3ce990953d93c2bdU,
  0x3d998f82be0651b4U, 0xbd7d53f8be21bf81U, 0xbde42ae53e48c9f5U, 0xbd59bba73b6760b9U,
  0xbe9275243d55f25cU, 0xbe7683ae3d53e6b3U, 0x3d0549ebbe884948U, 0xbe112292be26aa4fU,
  0xbca3c12b3da3172aU, 0xbc195af6bd3021eeU, 0xbbc8bae5bd853c6cU, 0xbdc8ca38be86b62cU,
  0x3d9b0a34bd6d655cU, 0xbde3d2a8be0f1df3U, 0xbb541b85be869af9U, 0xbd9bcf18bc5cf897U,
  0xbac704c0bde7b5d1U, 0x3d26dd393d5598a5U, 0x3dd213ac3d98668fU, 0xbe0019b73e05d21bU,
  0xbd1ff1f8bc9f7597U, 0xbdaa26193d1cedefU, 0x3d02cb72be0dc499U, 0xbdee30edbe0b2f8fU,
  0xbe1f0c983bed3a4dU, 0x3d4cbc30bd7d8a84U, 0xbdce73d7bd40b4d8U, 0xbd3883e4bda6a0d3U,
  0x3d7a7ecb3d0d143fU, 0xbda325a2bdbf35d1U, 0xbd1feeedbdcf565eU, 0xbe10246fbcd33c06U,
  0xbcd6453c3cc1777eU, 0x3d10bf593d674f45U, 0x3d8ccb3cbc1c9db9U, 0x3d1bf0d93dbcb39dU,
  0x3d11d3ceba3c3211U, 0x3da81bedbe2230bfU, 0xbc3a0bcf3db28cfbU, 0x3e1ae8513e3f95f8U,
  0xbdf8d829bd139a4cU, 0x3d3acd453d821553U, 0xbdba96d43deb3b1eU, 0x3d5ef3ad3da3029fU,
  0x3d82f3a43e19fb11U, 0x3d2e27223def4adaU, 0x3d870cfabdfd27f6U, 0x3d80528fbd6adbcdU,
  0xbe15cc513bcffb85U, 0xbe1fed3f3d0516daU, 0xbe66ffc5bddd88feU, 0xbd223067be2da240U,
  0xbd9e72a2bd1507afU, 0xbbbad1a63c53f6d8U, 0xbdbd1bb4bd46b07fU, 0x3dfbc16d3e0390c2U,
  0x3e279f3bbd03f60cU, 0xbd28d6383de8bcddU, 0x3d44b864bd01b077U, 0x3d9963de3cd1e39dU,
  0xbd9226b53da1531bU, 0x3e3277cf3e277389U, 0xbdd1511abdb11257U, 0x3dbe3b4ebd823b9cU,
  0x3c6e08d6bd8afc1bU, 0x3dd2cb8abd23c141U, 0xbdca39b6be2e7ceaU, 0x3d57b24abdf5219aU,
  0xbdea8e38bbf4f34fU, 0x3ddd61163d0900c1U, 0x3cfd4d023d95f00fU, 0x3dd251053df0132eU,
  0x3d73fffe3e013b1eU, 0x3e66aedb3e436981U, 0x3d9ef4833cf9e216U, 0x3e6e1a243ca51d7fU,
  0x3e150a40bd5706bfU, 0x3d9e0c313d340988U, 0x3dde48c93d4fa970U, 0xbd093ef23de02ec3U,
  0xbe0270703b680a7aU, 0xbe8638c1bd24c4d0U, 0xbcd9a051bdf0640fU, 0xbd3dd7483ccfdd61U,
  0x3d95e523bd26b17eU, 0x3e0c16743dcfee45U, 0x3d92fb0abec411eeU, 0xbdbd97ff3c6f62f3U,
  0x3d770871bc201beeU, 0x3b355a3bbd427b0cU, 0x3df39d133bd347b4U, 0xbd587ab83da9e2ebU,
  0xbc61d5513d38501dU, 0x3c1a4596be276a54U, 0x3c0718673e446102U, 0x3dfa9b733df22f4eU,
  0xbe6f13023d1194dfU, 0xbebafe71bdef2815U, 0xbe308b37be20af50U, 0xbcb3abd3be101e79U,
  0x3d60c974bed5b17dU, 0x3de015243d9d61e5U, 0xbe0a80e6be9b5927U, 0xbd094e87be6bbfffU,
  0xbb2cddcd3db0fadfU, 0x3cec5d4dbd25df3cU, 0x3dd7d7593dbcaec0U, 0xbdaeb111bd259e94U,
  0xbc3fe39cbe0fad53U, 0x3c076daebe39305bU, 0xbe0b67b73da08cd6U, 0xbcbc2d7e3d9a0a67U,
  0xbe84ead63a83c528U, 0xbe4c9b2fbda3e293U, 0xbea1c954be306971U, 0xbdd0466cbe226772U,
  0xbe532a3fbe477bacU, 0x3b0f05c23db20d6aU, 0xbe169682be920ca4U, 0xbe17a0c8be98334fU,
  0x3d10adb33d963e84U, 0xbdc7f11abe171088U, 0x3dffce5c3c4adc64U, 0xbe8f5a48be05e8c2U,
  0x3d386846be85b517U, 0xbe0aef7abe424b11U, 0x3bbf40783de7616dU, 0xbdd669253e2c4409U,
  0xbd0939893cf7df1fU, 0x3d1f03d13d01ef09U, 0xbd189bb2be20df07U, 0x3d8302553dcdaf2aU,
  0x3e1bc8b1bdaabbc0U, 0xbe11d13abe71e2d4U, 0xbcdffa253dfb7571U, 0x3b9a49de3d97a43aU,
  0xbe55aea4be0b1f48U, 0x3c424118be2e3ef8U, 0xbd65f437bcfd6369U, 0xbe4eb6e43ca1521cU,
  0xbdcd9d623d4f0fe0U, 0x3dbda46c3d490352U, 0x3df67da3bd67c6a5U, 0xbdcacdebbe3c4783U,
  0xbe440affbe4fbb67U, 0xbd48b45e3cf5cd4eU, 0xbec8cba3bd8c8ec6U, 0x3bf81b57bd846febU,
  0xbe6fb56dbe3c2801U, 0xbe408ab8bdb6e93aU, 0xbe8b43d43e2b95e1U, 0xbceecb16bda2141eU,
  0xbdfc6daebd4c8ea8U, 0xbd687f5ebcffda7eU, 0xbe1e8273bca88ccbU, 0xbdc762c5be65c1a6U,
  0xbdab59d1bd0c6f8bU, 0x3d2fee7bbd8c13e0U, 0xbc260929be3885f1U, 0xbe227ccabe2478c6U,
  0xbeb03ce8be488c00U, 0xbe472da9be080148U, 0xbeb2211ebe6d4a2bU, 0xbe4d95d5be8e16c3U,
  0xbea38077be79817dU, 0xbe84d159be40ac6cU, 0xbeaa842bbdc929a4U, 0xbdfe8fc7be9f58e2U,
  0xbe030037be540ee1U, 0xbe48f4cfbe069a1dU, 0xbd9cb43bbe2fb980U, 0xbe880617be967b23U,
  0xbe50d2c6be2081d0U, 0xbe64a4b6be14b5a0U, 0xbd698bcabe7a4889U, 0xbe9fd933bc86d5e6U,
  0xbdcb0bd53d8991beU, 0xbe4e79d2bc615ca4U, 0x3d7b6d42bcecd593U, 0xbd93b3b13e14630bU,
  0x3e7874f6be23265bU, 0x3e8629dc3da8ea94U, 0x3d1ccecf3dddeaccU, 0xbe14d1483de6570eU,
  0x3e2a4b6bbceb5608U, 0xbe1a9891bc77eaa8U, 0x3d84247ebdef6d71U, 0x3cf2dbdb3b436522U,
  0xbe8212a8bc8a911eU, 0xbdb30630bde853faU, 0xbd1c99973e978b68U, 0x3e094c25bd6f4ba2U,
  0x3d6fdbd1bc5b83f0U, 0xbddad4e93d4d8210U, 0xbcc0dd2abb76bf86U, 0xbc088ec03cf13d50U,
  0x3d73b02ebd21fcdaU, 0x3dda02a73d651a74U, 0x3b52043c3dcdce67U, 0xbca2ddf83e14e5e5U,
  0x3d6103263d1b9d46U, 0xbdbfe83c3d2c2e14U, 0x3dbc6b033d695ff5U, 0x3b04ea103dd5b5bcU,
  0xbcc8e42d3c813856U, 0x3dca2b943dc39310U, 0x3d2ccbc83e24c9f2U, 0x3d720269bd09d2bcU,
  0x3d5b77e73e37efeaU, 0xbd0be2803c9b5626U, 0x3d61c9f73db9771bU, 0x3d044a9c3d967c5cU,
  0x3e0203f63d81d164U, 0x3e18b7a63cab1ed1U, 0x3d7f1a6fbd808280U, 0x3d366010bd1589abU,
  0x3df8c84dbd04c864U, 0x3d1d3349be16b80dU, 0x3c2bb6ca3ddae7b7U, 0xbd34c7583d02fef9U,
  0x3b8e29e33ce4b15bU, 0xbd1099a23d72d577U, 0xbd67926b3d440250U, 0x3de5acabbe0078c5U,
  0xbeac8755bdd0c97aU, 0xbe876177be29944aU, 0x3dc05f5bbdf00874U, 0xbd88878c3dd683d2U,
  0xbc05123fbea76e25U, 0x3dea02a6be1604f8U, 0xbe8340ea3de8502aU, 0xbe2f3faabdcf2df8U,
  0xbd9b8eaebe297838U, 0xbe39a549bdd13664U, 0xbbba2f56be4b5827U, 0xbe7cb91bbe3eac05U,
  0xbe4bd9debdf6d0f5U, 0xbe6a8b9ebe1bb533U, 0xbe8e09303d361bc7U, 0xbe86edb8be16a40fU,
  0xbda07a0e3d527582U, 0xbe5fb0efbda94946U, 0x3d3e38d23d90a0dcU, 0xbd9807323db1f177U,
  0x3dac618cbdf32528U, 0x3be9db313d344b31U, 0xbd23f2aabda3325bU, 0xbddcab11be32184bU,
  0xbcd1ddd6bd034cfeU, 0xbe38ecf7bc8c6eb7U, 0x3d8fc908be17538bU, 0xbd8e7f583ce47db9U,
  0xbe2ee189bd8fae85U, 0xbe106436be102716U, 0xbd81bdf53d501f19U, 0xbcb98bc4bc99333bU,
  0x3db04a3c3deb10dcU, 0xbd8a49debc08c3a2U, 0x3e2c5a4c3dd4a3d2U, 0xbcfae0b13e37e97bU,
  0x3ddc16193c6eb291U, 0x3dd556ad3cd3c558U, 0x3d7d6542be71a5d6U, 0x3d42999fbdadd424U,
  0xbdc9f5d5bc7f8498U, 0xbdb41f2abda46a1eU, 0xbd530c7dbd08e9ebU, 0xbe1f05dc3e1abaf4U,
  0xbdca7abe3caa8a94U, 0x3db44f8f3c578a6fU, 0xbe03134c3d0f9bb5U, 0x3db6e383bdcd5ab1U,
  0xbddc37643dac848aU, 0x3e19df063dd626d8U, 0xbeba460ebe121c3eU, 0x3db7da12be4d449bU,
  0xbe09355abc64fcf9U, 0xbe2ddb65be3fc890U, 0xbe8e24963ea02c4cU, 0x3defead33dd58624U,
  0xbdc6d5debec7ce77U, 0x3dbb7a2dbe1e4887U, 0xbdd2431d3d9db7a8U, 0xbd5bb26abc95c111U,
  0x3d5944f93e2378abU, 0x3d9ee5e83d90126bU, 0x3e4a606dbe1f7d66U, 0xbd86650fbe299808U,
  0xbe89710abe557a4bU, 0xbe9dc05dbe1da968U, 0xbe35f1b7bded546cU, 0xbe0f16bebe0f32fdU,
  0xbe061d53be6dca2eU, 0x3e38503fbe35a042U, 0xbe8598ec3d433b50U, 0xbd81ed39be2675f7U,
  0x3c8941a2be300980U, 0xbde051babd8aac2aU, 0x3d533a80bd870bfeU, 0xbe6b1417bdbecee2U,
  0xbd5755b4be8077eeU, 0xbdf9370abdb75f84U, 0x3ec334cdbc3b4c98U, 0xbe6548c0bd5b3268U,
  0xbcc899233dbb50a3U, 0xbec3ee52be3644edU, 0x3dc0f322bbd47cacU, 0xbd2f99203e30506cU,
  0x3e95da55bd16e33eU, 0x3ebe76a9bc73dd57U, 0xbdc6f464be538debU, 0xbe431549be1fac77U,
  0x3e136c783dffa84fU, 0xbea96e0e3d5f30feU, 0x3e480953bdc4ae20U, 0xbeb266553da864ebU,
  0xbeb280d5bdded3c1U, 0xbca58b2ebe4afbdbU, 0x3c5a06a13e81b82cU, 0xbd4dadcfbc91ca65U,
  0x3dbf8b7f3df77fe3U, 0xbea1119cba9cd8c8U, 0x3df3d7c93dd0ce06U, 0x3c834dda3e58cbc6U,
  0x3e79beecbdae3d99U, 0x3e6f1630be67517eU, 0x3dc3ab83be9a3b10U, 0xbe313224bce5aa2bU,
  0x3d0c18683c8967c9U, 0xbe8725e33c6525b3U, 0x3d1de3c2bd8e5a14U, 0xbd7e034f3d90fa49U,
  0xbe2460e3bcbd9230U, 0xbde7af9ebd1de2dfU, 0xbe5ff6b73e26bdc7U, 0x3d5ab1c3bd76622cU,
  0xbda35f75bb8c2a6bU, 0xbd1bebdcbd5bb887U, 0xbe08024abd306124U, 0xbb66f413bde8f6c9U,
  0xbcf17c0bbdafaf6aU, 0x3d9e735ebd400017U, 0xbd681b3bbe7084d6U, 0x3cb5fe8fbdb96328U,
  0x3dd3d8f03dff992fU, 0x3da6b7b13e236d7fU, 0x3e23d7d33dae3ac3U, 0x3da5f349bca9bb88U,
  0x3ddb7318bcd1dc42U, 0xbdbed018bda94838U, 0xbca7cc163dde2a95U, 0xbd215aa33e46161dU,
  0xbd9ba81bbd6f4188U, 0xbe279595bdc2a46dU, 0xbe318e0ebd397691U, 0xbd374e0bbe180775U,
  0xbe277f13bdde71bdU, 0xbe58dc953dc2e63bU, 0xbe4881d9be6e0d78U, 0xbdea9ef1beb47dfdU,
  0x3d5544383da131a3U, 0xbd9821a8be2ef416U, 0xbda22e23bb4d417eU, 0xbe839ec8bd3466d7U,
  0xbcc528b3bdff18b3U, 0xbe11e858be101a89U, 0xbddf7afabdd1ab56U, 0xbe40baf23c94aa44U,
  0xbe7b5dc2be25a3b3U, 0xbe5154babe9b6ad2U, 0xbe3fe775be316c97U, 0xbd7661adbd6ea516U,
  0xbdaadcb6be321cdaU, 0x3e40fae3bc978853U, 0xbe89ed26bd5aef97U, 0xbe661dfabdf2b421U,
  0xbdc867c0bd7cc8bcU, 0xbe876242bdf5724aU, 0x3a99853ebe0da453U, 0xbe359461bdb77652U,
  0xbe7124ffbe2ed6adU, 0xbe857f74be6e9135U, 0xbecf34b93dbac5ceU, 0xbe2f7710bd106328U,
  0x3d88749bbd2ab235U, 0xbb280875b9cd7d7aU, 0xbe0c94043d6d6d6cU, 0xbdc78f63bb1f3905U,
  0xbdbc031bbcc5789aU, 0xbdf9cb293e9a4ea0U, 0xbe2ae81cbcb6da53U, 0xbdbff5453d891c1eU,
  0x3dbd85013e4d95e3U, 0xbd9bbf6fbd667caeU, 0x3d84e666bcdbae07U, 0xbd416571bc470152U,
  0xbcab839abd2a01fbU, 0xbded7e12bdfc3fb2U, 0xbe6953fc3dd44c9aU, 0xbe27e8fc3e872ff9U,
  0x3e038df53d2465ccU, 0x3dc60265bcfeff7aU, 0x3da706bb3d660c88U, 0x3ca04383bdbf4f9cU,
  0xbdb539f93e2317abU, 0xbe9d04663d5969f4U, 0xbce2dca33de54e4fU, 0x3d3da765bd3b2252U,
  0xbe1c63e0be501587U, 0xbca52ec5bd144a95U, 0xbe3b99bdbda36818U, 0x3d0ba7a43cec17f9U,
  0xbda562b33d0b5e9bU, 0x3cb650c03c7a393aU, 0xbdc881a1be35d417U, 0x3cfbf09bbddf720fU,
  0x3ddc759bbe36c3c1U, 0x3d0ec85e3ce472daU, 0x3b17efb03e0d36f8U, 0xbe11856a3d0a44c6U,
  0x3df15f933cd056b6U, 0xbe5d236abd886766U, 0x3d4d2ad33b68654cU, 0xbe3eb5f3bd66580eU,
  0xbe2a0aecbe37c5ffU, 0xbdbfa5c8be82ba8fU, 0xbe386d59bdcdd123U, 0xbe76f677be2c9c32U,
  0xbd9fb4a03c01b78aU, 0xbe3ffed9bdbf82ceU, 0xbe6a3e7bbeacb43fU, 0xbe2b4be53b0c54f4U,
  0x3dbf1c0c3b966abdU, 0x3dee1a5e3d580425U, 0x3d59f0083da52e5dU, 0x3e0fe7e53dbad59fU,
